<pad>	0
<unk>	0
<s>	0
</s>	0
en	-0
er	-1
▁d	-2
in	-3
▁t	-4
ch	-5
▁a	-6
on	-7
▁th	-8
es	-9
is	-10
un	-11
▁w	-12
it	-13
▁s	-14
at	-15
ie	-16
▁the	-17
or	-18
re	-19
an	-20
ich	-21
▁b	-22
ion	-23
▁o	-24
▁in	-25
▁m	-26
al	-27
▁f	-28
ar	-29
ro	-30
te	-31
▁e	-32
le	-33
ent	-34
▁p	-35
▁an	-36
▁h	-37
▁n	-38
▁c	-39
ung	-40
ge	-41
▁un	-42
▁of	-43
as	-44
▁to	-45
us	-46
▁die	-47
▁der	-48
▁v	-49
▁E	-50
om	-51
▁be	-52
ur	-53
ll	-54
ing	-55
▁I	-56
▁and	-57
▁A	-58
▁is	-59
ed	-60
▁und	-61
ir	-62
ig	-63
▁S	-64
▁z	-65
st	-66
▁M	-67
▁P	-68
▁ein	-69
ra	-70
em	-71
ic	-72
im	-73
▁g	-74
ut	-75
eit	-76
icht	-77
▁B	-78
ies	-79
el	-80
▁re	-81
ol	-82
▁D	-83
id	-84
ation	-85
omm	-86
am	-87
sch	-88
ter	-89
ten	-90
▁T	-91
ul	-92
rop	-93
▁W	-94
der	-95
▁F	-96
il	-97
lich	-98
ve	-99
ber	-100
▁that	-101
hr	-102
den	-103
ct	-104
▁zu	-105
▁wh	-106
gen	-107
▁au	-108
et	-109
▁K	-110
ür	-111
isch	-112
▁R	-113
▁V	-114
▁l	-115
▁den	-116
urop	-117
▁for	-118
ere	-119
▁k	-120
▁G	-121
▁C	-122
ab	-123
ot	-124
um	-125
▁on	-126
ly	-127
▁H	-128
ein	-129
iss	-130
res	-131
▁wir	-132
▁Europ	-133
▁U	-134
▁da	-135
ort	-136
▁ge	-137
▁we	-138
ier	-139
▁al	-140
▁im	-141
▁dies	-142
os	-143
de	-144
▁so	-145
ff	-146
▁Th	-147
tr	-148
▁con	-149
ce	-150
▁das	-151
ver	-152
ommiss	-153
▁this	-154
▁ver	-155
men	-156
▁von	-157
▁it	-158
est	-159
and	-160
▁für	-161
▁pro	-162
▁ist	-163
ommission	-164
ft	-165
▁er	-166
ach	-167
▁as	-168
▁are	-169
▁auf	-170
▁des	-171
▁Un	-172
ment	-173
▁ha	-174
▁L	-175
kt	-176
ill	-177
▁nicht	-178
▁Ver	-179
ischen	-180
ith	-181
▁daß	-182
▁In	-183
uld	-184
▁not	-185
▁which	-186
ess	-187
▁de	-188
ould	-189
ow	-190
▁with	-191
port	-192
▁Z	-193
▁ne	-194
op	-195
ke	-196
ungen	-197
her	-198
▁have	-199
▁als	-200
▁N	-201
▁wer	-202
ident	-203
▁Europe	-204
ht	-205
▁st	-206
ind	-207
iv	-208
la	-209
ate	-210
▁eine	-211
ive	-212
▁j	-213
up	-214
▁dem	-215
▁se	-216
▁es	-217
▁werden	-218
end	-219
▁Par	-220
pe	-221
än	-222
if	-223
ament	-224
▁Re	-225
▁le	-226
ant	-227
for	-228
ial	-229
ens	-230
über	-231
▁ex	-232
▁mit	-233
ay	-234
▁-	-235
ust	-236
ungs	-237
▁co	-238
ity	-239
▁all	-240
lie	-241
ib	-242
▁ich	-243
▁St	-244
qu	-245
ann	-246
▁r	-247
ug	-248
we	-249
ne	-250
▁will	-251
00	-252
nen	-253
▁vor	-254
ah	-255
und	-256
▁The	-257
▁auch	-258
hal	-259
▁An	-260
ck	-261
aus	-262
▁y	-263
err	-264
▁Parl	-265
sen	-266
ste	-267
▁sich	-268
▁uns	-269
▁European	-270
▁by	-271
uch	-272
igen	-273
▁Union	-274
▁ab	-275
▁Mr	-276
▁1	-277
▁Commission	-278
och	-279
ts	-280
ions	-281
ik	-282
scha	-283
▁sh	-284
▁über	-285
▁res	-286
ers	-287
hen	-288
▁me	-289
▁has	-290
▁hab	-291
ain	-292
ern	-293
ub	-294
rä	-295
art	-296
iel	-297
ad	-298
▁at	-299
uß	-300
▁Fra	-301
ted	-302
uf	-303
▁or	-304
▁um	-305
▁Herr	-306
ges	-307
▁aus	-308
ure	-309
schaft	-310
olit	-311
▁Be	-312
▁Aus	-313
▁We	-314
pp	-315
ben	-316
▁wird	-317
tz	-318
ien	-319
▁En	-320
me	-321
▁Kommission	-322
▁wie	-323
sp	-324
▁Ich	-325
ord	-326
etz	-327
▁J	-328
▁sind	-329
ist	-330
▁hat	-331
ahr	-332
▁do	-333
itte	-334
▁Die	-335
▁was	-336
▁i	-337
▁sch	-338
llen	-339
heit	-340
▁com	-341
▁ma	-342
our	-343
ische	-344
▁Sch	-345
▁zur	-346
▁also	-347
chte	-348
keit	-349
enn	-350
▁would	-351
▁Pro	-352
gr	-353
ight	-354
▁Er	-355
▁haben	-356
▁Europä	-357
beit	-358
▁Wir	-359
eren	-360
ue	-361
▁Ber	-362
rom	-363
all	-364
▁there	-365
▁dar	-366
lichen	-367
▁O	-368
▁Pres	-369
ise	-370
▁Vor	-371
räs	-372
ates	-373
se	-374
ze	-375
ran	-376
▁mö	-377
ese	-378
▁reg	-379
▁Ar	-380
ember	-381
ations	-382
▁sie	-383
ard	-384
räsident	-385
dern	-386
gt	-387
aten	-388
▁wor	-389
▁should	-390
▁he	-391
▁man	-392
esch	-393
ous	-394
▁di	-395
▁ent	-396
▁Ab	-397
ige	-398
be	-399
▁2	-400
ert	-401
▁sein	-402
▁ag	-403
▁am	-404
ak	-405
▁our	-406
cht	-407
▁en	-408
od	-409
▁inter	-410
99	-411
ön	-412
▁President	-413
▁must	-414
är	-415
▁from	-416
du	-417
ational	-418
ther	-419
▁us	-420
▁Ent	-421
lem	-422
ore	-423
oun	-424
urch	-425
ip	-426
▁ad	-427
ud	-428
ect	-429
▁unter	-430
▁part	-431
age	-432
ical	-433
iament	-434
th	-435
▁Präsident	-436
▁but	-437
ou	-438
▁fa	-439
▁Parlament	-440
üs	-441
▁Bericht	-442
ult	-443
cial	-444
▁Mit	-445
▁einer	-446
able	-447
▁diese	-448
▁Ein	-449
▁been	-450
ang	-451
ition	-452
▁qu	-453
ommen	-454
uss	-455
rit	-456
ick	-457
ühr	-458
▁nach	-459
▁It	-460
cc	-461
form	-462
anz	-463
▁comm	-464
▁li	-465
ction	-466
▁coun	-467
ast	-468
▁Gr	-469
▁comp	-470
out	-471
ün	-472
og	-473
▁kön	-474
ät	-475
▁Parliament	-476
ok	-477
▁dieser	-478
elt	-479
▁prop	-480
▁Member	-481
▁bei	-482
vel	-483
▁bet	-484
ution	-485
ish	-486
▁sa	-487
▁Sie	-488
imm	-489
▁go	-490
▁Ge	-491
▁"	-492
▁ch	-493
ome	-494
▁report	-495
▁(	-496
ary	-497
ute	-498
iz	-499
▁can	-500
▁you	-501
▁dis	-502
liche	-503
▁möchte	-504
▁its	-505
▁countr	-506
▁ob	-507
con	-508
hl	-509
ör	-510
cil	-511
sta	-512
pl	-513
▁EU	-514
▁Europäischen	-515
olle	-516
▁app	-517
glie	-518
▁pos	-519
üssen	-520
reat	-521
ger	-522
chen	-523
▁durch	-524
▁einen	-525
▁po	-526
▁ste	-527
ank	-528
▁pr	-529
▁gro	-530
▁more	-531
ierung	-532
ass	-533
ieren	-534
▁müssen	-535
mer	-536
zu	-537
gra	-538
ms	-539
▁zw	-540
▁mein	-541
rag	-542
pt	-543
he	-544
ose	-545
▁dass	-546
nah	-547
▁noch	-548
▁polit	-549
oc	-550
ely	-551
▁like	-552
▁This	-553
▁zum	-554
▁inc	-555
▁gen	-556
lin	-557
▁Mitglie	-558
▁conc	-559
▁spe	-560
▁these	-561
▁cons	-562
olic	-563
▁soll	-564
blem	-565
▁fin	-566
▁who	-567
ress	-568
▁kann	-569
▁need	-570
▁ber	-571
▁nur	-572
▁ih	-573
▁Reg	-574
▁Coun	-575
fen	-576
ally	-577
ime	-578
ear	-579
gan	-580
▁Council	-581
oll	-582
ance	-583
▁imp	-584
▁bes	-585
▁right	-586
▁Es	-587
glich	-588
▁wur	-589
▁pre	-590
igkeit	-591
▁diesem	-592
sten	-593
▁bec	-594
ück	-595
▁their	-596
▁Das	-597
▁Frau	-598
▁op	-599
▁ra	-600
▁können	-601
▁propos	-602
hmen	-603
▁other	-604
fore	-605
000	-606
▁jed	-607
▁cont	-608
aß	-609
▁te	-610
gram	-611
▁Comm	-612
yste	-613
▁States	-614
▁kein	-615
▁work	-616
▁they	-617
▁oder	-618
▁polic	-619
sam	-620
▁pe	-621
▁import	-622
▁ta	-623
▁sup	-624
ffen	-625
▁very	-626
▁Mitglied	-627
▁wenn	-628
olitik	-629
schen	-630
ments	-631
▁no	-632
▁aber	-633
ause	-634
▁up	-635
wo	-636
wer	-637
ap	-638
sib	-639
iert	-640
ced	-641
ement	-642
ag	-643
▁int	-644
sicht	-645
▁str	-646
ative	-647
▁muß	-648
pf	-649
rat	-650
are	-651
▁sp	-652
reich	-653
usam	-654
ließ	-655
▁ges	-656
ktion	-657
▁one	-658
▁out	-659
cy	-660
au	-661
ject	-662
usammen	-663
erv	-664
▁weit	-665
▁Arbeit	-666
ide	-667
▁war	-668
▁Unter	-669
▁ihr	-670
ittel	-671
▁gegen	-672
one	-673
lic	-674
ark	-675
uropä	-676
ention	-677
tschaft	-678
rie	-679
wick	-680
▁what	-681
▁Mitgliedsta	-682
str	-683
ign	-684
▁countries	-685
▁eff	-686
▁sehr	-687
ähr	-688
▁Kon	-689
iden	-690
ious	-691
▁leg	-692
▁hin	-693
che	-694
▁my	-695
itu	-696
führ	-697
utz	-698
leich	-699
ütz	-700
ob	-701
rect	-702
ink	-703
▁199	-704
teil	-705
ated	-706
tern	-707
erst	-708
▁acc	-709
▁ind	-710
ugh	-711
▁Jahr	-712
▁Rat	-713
onder	-714
▁iss	-715
ice	-716
▁europä	-717
▁if	-718
velop	-719
▁wo	-720
▁Dies	-721
arbeit	-722
▁about	-723
stit	-724
lung	-725
atter	-726
▁Men	-727
▁De	-728
▁dec	-729
▁Ä	-730
änd	-731
ople	-732
int	-733
▁einem	-734
ring	-735
▁ev	-736
nung	-737
ia	-738
▁year	-739
cess	-740
pect	-741
ase	-742
▁gem	-743
▁because	-744
bar	-745
▁Vorsch	-746
▁tra	-747
▁Auf	-748
ces	-749
▁only	-750
▁any	-751
▁Um	-752
ities	-753
auf	-754
▁Mitgliedstaaten	-755
los	-756
fahr	-757
▁As	-758
▁dieses	-759
mend	-760
▁unser	-761
▁time	-762
lear	-763
lä	-764
ider	-765
▁mo	-766
assen	-767
ität	-768
iven	-769
ong	-770
ever	-771
▁new	-772
ree	-773
▁For	-774
▁partic	-775
ans	-776
▁important	-777
▁mehr	-778
chn	-779
▁policy	-780
etzt	-781
▁develop	-782
▁alle	-783
▁wicht	-784
▁ins	-785
▁sub	-786
tet	-787
▁people	-788
wend	-789
▁hier	-790
igt	-791
wir	-792
▁Kolle	-793
tre	-794
ism	-795
▁fe	-796
alt	-797
▁Menschen	-798
unity	-799
▁concern	-800
sche	-801
▁tran	-802
▁proposal	-803
halb	-804
ular	-805
ild	-806
▁sol	-807
ility	-808
▁exp	-809
irst	-810
▁fact	-811
land	-812
geb	-813
▁again	-814
▁bereit	-815
ituation	-816
nder	-817
ri	-818
▁Le	-819
▁Grund	-820
▁act	-821
▁national	-822
ahl	-823
▁Änder	-824
▁dam	-825
lle	-826
▁Der	-827
▁vie	-828
ibt	-829
ittee	-830
conom	-831
▁such	-832
wor	-833
▁So	-834
▁ihre	-835
ures	-836
▁just	-837
▁em	-838
ings	-839
▁intern	-840
änder	-841
llt	-842
▁wurde	-843
▁problem	-844
▁support	-845
▁Verb	-846
▁Zusammen	-847
pro	-848
uman	-849
xt	-850
ystem	-851
▁make	-852
▁Ch	-853
▁now	-854
▁deb	-855
nahmen	-856
lar	-857
stütz	-858
▁Gem	-859
▁inv	-860
halten	-861
▁Entwick	-862
mal	-863
ner	-864
chts	-865
▁way	-866
▁some	-867
▁rec	-868
vern	-869
▁gr	-870
▁take	-871
ives	-872
ire	-873
fol	-874
schließ	-875
▁la	-876
▁prov	-877
isation	-878
ite	-879
▁say	-880
ific	-881
ors	-882
pon	-883
▁into	-884
ine	-885
ange	-886
legen	-887
▁kon	-888
▁direct	-889
▁pres	-890
▁Ü	-891
fr	-892
ken	-893
icher	-894
lag	-895
trä	-896
ote	-897
▁Gemein	-898
ween	-899
schie	-900
ument	-901
▁therefore	-902
▁between	-903
▁how	-904
▁Richt	-905
nehmen	-906
äm	-907
▁Se	-908
enz	-909
▁per	-910
▁quest	-911
▁Te	-912
▁diff	-913
▁particular	-914
iß	-915
▁gew	-916
▁Maß	-917
hand	-918
now	-919
▁son	-920
zial	-921
▁Frage	-922
▁rel	-923
▁viel	-924
kommen	-925
unkt	-926
▁Europäische	-927
▁Über	-928
▁clear	-929
▁3	-930
ame	-931
led	-932
leg	-933
wie	-934
hör	-935
mit	-936
formation	-937
für	-938
iti	-939
iger	-940
ustr	-941
pr	-942
▁tak	-943
▁econom	-944
sible	-945
ru	-946
gel	-947
▁Art	-948
ov	-949
▁Zeit	-950
▁being	-951
▁when	-952
▁Europa	-953
▁ar	-954
fe	-955
äch	-956
ual	-957
ision	-958
▁disc	-959
▁diesen	-960
inis	-961
rauch	-962
▁bas	-963
▁made	-964
▁zwischen	-965
▁those	-966
olog	-967
uro	-968
▁sondern	-969
▁produ	-970
▁ref	-971
zie	-972
▁Fin	-973
igung	-974
▁eines	-975
hn	-976
▁best	-977
kte	-978
▁human	-979
issen	-980
▁pla	-981
▁were	-982
amp	-983
forder	-984
abe	-985
oy	-986
ues	-987
▁damit	-988
bst	-989
acht	-990
▁first	-991
▁jedoch	-992
▁political	-993
▁them	-994
▁than	-995
eration	-996
▁ass	-997
▁mark	-998
▁know	-999
▁agre	-1000
ty	-1001
▁regard	-1002
▁denn	-1003
ural	-1004
▁respon	-1005
erung	-1006
▁wel	-1007
▁rights	-1008
▁Bed	-1009
atz	-1010
▁groß	-1011
rei	-1012
▁mich	-1013
zeit	-1014
ublic	-1015
▁over	-1016
kehr	-1017
get	-1018
▁Änderungs	-1019
gin	-1020
▁off	-1021
iff	-1022
▁gibt	-1023
▁Mein	-1024
▁requ	-1025
isten	-1026
ertain	-1027
ised	-1028
halt	-1029
▁end	-1030
▁amend	-1031
▁Bere	-1032
▁Herrn	-1033
tro	-1034
▁gemein	-1035
▁great	-1036
▁issue	-1037
▁Aussch	-1038
iron	-1039
▁einz	-1040
▁ganz	-1041
weise	-1042
▁point	-1043
▁anderen	-1044
▁Ges	-1045
▁Commissioner	-1046
tw	-1047
▁Ih	-1048
▁Bür	-1049
isen	-1050
▁Land	-1051
▁ro	-1052
▁europäischen	-1053
weit	-1054
stitution	-1055
▁keine	-1056
viron	-1057
ating	-1058
day	-1059
▁rep	-1060
▁under	-1061
vironment	-1062
▁bereits	-1063
▁think	-1064
ene	-1065
eral	-1066
▁habe	-1067
linie	-1068
▁sowie	-1069
▁cour	-1070
▁Bereich	-1071
▁international	-1072
wn	-1073
▁nat	-1074
lement	-1075
uen	-1076
elbst	-1077
ats	-1078
erd	-1079
/2	-1080
▁add	-1081
▁stat	-1082
welt	-1083
▁Haus	-1084
▁see	-1085
▁order	-1086
fl	-1087
ld	-1088
ient	-1089
ordnung	-1090
ändern	-1091
▁trans	-1092
enden	-1093
äl	-1094
▁market	-1095
ved	-1096
ragen	-1097
▁debate	-1098
▁fest	-1099
ett	-1100
▁dann	-1101
cept	-1102
▁consider	-1103
igh	-1104
arm	-1105
▁want	-1106
▁beste	-1107
▁social	-1108
▁within	-1109
eschä	-1110
ateg	-1111
isl	-1112
ha	-1113
els	-1114
5-	-1115
itz	-1116
isk	-1117
▁heute	-1118
▁Committee	-1119
▁tr	-1120
▁Maßnahmen	-1121
▁Ste	-1122
▁unsere	-1123
▁Sta	-1124
▁belie	-1125
▁question	-1126
▁ho	-1127
erein	-1128
chten	-1129
entlich	-1130
read	-1131
achen	-1132
rechen	-1133
fin	-1134
icherheit	-1135
fall	-1136
gend	-1137
▁hand	-1138
▁many	-1139
inc	-1140
▁program	-1141
▁certain	-1142
rim	-1143
entr	-1144
nis	-1145
▁fund	-1146
▁her	-1147
ac	-1148
very	-1149
hin	-1150
sel	-1151
▁wür	-1152
▁rem	-1153
▁where	-1154
▁weil	-1155
▁Rechts	-1156
ahmen	-1157
▁Con	-1158
feren	-1159
▁ac	-1160
▁Community	-1161
▁geht	-1162
icult	-1163
amen	-1164
▁weiter	-1165
▁Mrs	-1166
▁meas	-1167
▁fre	-1168
ionen	-1169
▁Rahmen	-1170
ian	-1171
geord	-1172
▁Al	-1173
▁even	-1174
▁Parlaments	-1175
▁well	-1176
▁does	-1177
eschäft	-1178
▁pl	-1179
▁view	-1180
ward	-1181
ulation	-1182
ope	-1183
▁resol	-1184
vernment	-1185
erson	-1186
▁Mittel	-1187
▁matter	-1188
▁Inter	-1189
lagen	-1190
geordne	-1191
ull	-1192
ile	-1193
▁adop	-1194
eth	-1195
▁cann	-1196
▁There	-1197
▁cannot	-1198
▁against	-1199
piel	-1200
▁Vorschlag	-1201
▁years	-1202
uff	-1203
▁effect	-1204
ack	-1205
fü	-1206
▁environment	-1207
▁development	-1208
▁Gemeinschaft	-1209
ional	-1210
vor	-1211
kl	-1212
▁prote	-1213
▁bis	-1214
▁lie	-1215
oth	-1216
fahren	-1217
▁Entwicklung	-1218
gem	-1219
arkt	-1220
▁here	-1221
▁darauf	-1222
▁5	-1223
▁4	-1224
▁directive	-1225
ving	-1226
llung	-1227
▁denen	-1228
act	-1229
▁Umwelt	-1230
▁Bürger	-1231
ploy	-1232
setz	-1233
vention	-1234
▁agreement	-1235
nahme	-1236
▁Ko	-1237
/2000	-1238
ied	-1239
ss	-1240
▁incl	-1241
▁gemeinsam	-1242
▁public	-1243
▁Str	-1244
bes	-1245
hne	-1246
ren	-1247
▁Im	-1248
▁Wh	-1249
▁believe	-1250
▁wichtig	-1251
▁system	-1252
politik	-1253
▁same	-1254
▁techn	-1255
itiz	-1256
orte	-1257
▁Kommiss	-1258
▁level	-1259
isse	-1260
▁ger	-1261
▁wirk	-1262
ätz	-1263
▁situation	-1264
▁Da	-1265
ict	-1266
▁two	-1267
▁could	-1268
▁Abgeordne	-1269
abl	-1270
▁Gro	-1271
▁appro	-1272
▁unserer	-1273
▁wieder	-1274
ph	-1275
uct	-1276
▁course	-1277
scheid	-1278
▁gesch	-1279
▁legisl	-1280
ischer	-1281
▁doch	-1282
ready	-1283
geben	-1284
▁How	-1285
▁immer	-1286
gesch	-1287
▁Richtlinie	-1288
▁already	-1289
lemen	-1290
▁Euro	-1291
▁Kollegen	-1292
ös	-1293
▁allem	-1294
▁Kommissar	-1295
stimm	-1296
ough	-1297
ondere	-1298
▁mon	-1299
▁possible	-1300
▁use	-1301
▁Hin	-1302
▁dra	-1303
incip	-1304
öglich	-1305
▁princip	-1306
▁finan	-1307
mittel	-1308
red	-1309
▁ens	-1310
▁mir	-1311
▁sollten	-1312
▁zwe	-1313
gehen	-1314
cted	-1315
▁real	-1316
ory	-1317
rimin	-1318
▁selbst	-1319
▁par	-1320
▁aut	-1321
▁economic	-1322
inister	-1323
▁good	-1324
▁vom	-1325
▁sollte	-1326
▁discuss	-1327
richt	-1328
▁bring	-1329
ständ	-1330
▁dafür	-1331
▁hel	-1332
▁most	-1333
▁Wie	-1334
ited	-1335
▁That	-1336
king	-1337
▁unterstütz	-1338
▁had	-1339
fä	-1340
▁citiz	-1341
▁sagen	-1342
▁every	-1343
tend	-1344
▁Geb	-1345
▁ter	-1346
äre	-1347
▁hal	-1348
▁letz	-1349
udget	-1350
ffe	-1351
▁your	-1352
▁gleich	-1353
▁country	-1354
▁Nach	-1355
▁verb	-1356
▁measures	-1357
essen	-1358
▁Politik	-1359
▁too	-1360
▁process	-1361
▁num	-1362
ater	-1363
okrat	-1364
▁incre	-1365
äß	-1366
such	-1367
way	-1368
▁vote	-1369
bens	-1370
operation	-1371
kon	-1372
cond	-1373
trag	-1374
▁own	-1375
▁spec	-1376
▁may	-1377
▁etw	-1378
▁ihrer	-1379
▁Zu	-1380
▁much	-1381
träge	-1382
laub	-1383
utions	-1384
▁Problem	-1385
▁meine	-1386
isierung	-1387
satz	-1388
▁still	-1389
▁gu	-1390
▁bin	-1391
▁Dem	-1392
ently	-1393
itiative	-1394
ritt	-1395
▁taken	-1396
▁ser	-1397
▁Them	-1398
▁able	-1399
▁wurden	-1400
beral	-1401
▁conf	-1402
▁sozial	-1403
▁fut	-1404
▁organ	-1405
▁Wenn	-1406
ority	-1407
▁Fraktion	-1408
ukt	-1409
ks	-1410
▁2000	-1411
▁contin	-1412
▁Sicherheit	-1413
▁Me	-1414
▁information	-1415
▁future	-1416
▁sc	-1417
▁then	-1418
ful	-1419
itions	-1420
▁put	-1421
immt	-1422
omen	-1423
▁case	-1424
▁dazu	-1425
▁said	-1426
▁thro	-1427
▁common	-1428
▁Des	-1429
▁serv	-1430
ühren	-1431
▁group	-1432
ents	-1433
besondere	-1434
▁cur	-1435
ürlich	-1436
▁Or	-1437
punkt	-1438
▁both	-1439
lossen	-1440
ält	-1441
▁hope	-1442
▁respect	-1443
erg	-1444
▁today	-1445
▁ö	-1446
ves	-1447
wort	-1448
▁area	-1449
▁citizens	-1450
reit	-1451
ason	-1452
▁att	-1453
▁Q	-1454
▁car	-1455
5-0	-1456
▁Fl	-1457
zus	-1458
▁Sp	-1459
▁his	-1460
▁Ziel	-1461
inn	-1462
vers	-1463
lungs	-1464
ispiel	-1465
lage	-1466
▁gel	-1467
▁number	-1468
▁last	-1469
öglichkeit	-1470
uer	-1471
▁wen	-1472
halts	-1473
▁pra	-1474
chie	-1475
▁However	-1476
▁Berichterst	-1477
ages	-1478
▁fra	-1479
▁est	-1480
▁interest	-1481
▁Ihnen	-1482
klär	-1483
ster	-1484
▁far	-1485
bat	-1486
▁fo	-1487
ruck	-1488
wohl	-1489
▁Diese	-1490
▁invol	-1491
▁lo	-1492
ices	-1493
ade	-1494
▁nun	-1495
antrag	-1496
öl	-1497
orteur	-1498
▁Wirtschaft	-1499
arge	-1500
ail	-1501
pporteur	-1502
▁why	-1503
rechte	-1504
▁through	-1505
erk	-1506
▁ele	-1507
▁action	-1508
▁reason	-1509
schieden	-1510
▁möglich	-1511
▁neg	-1512
▁ask	-1513
▁wollen	-1514
les	-1515
antwort	-1516
▁Program	-1517
▁jetzt	-1518
▁insbesondere	-1519
io	-1520
air	-1521
▁Mon	-1522
ierungs	-1523
ample	-1524
▁achie	-1525
▁industr	-1526
▁ohne	-1527
▁rapporteur	-1528
ting	-1529
wed	-1530
▁ausge	-1531
trib	-1532
▁aid	-1533
uring	-1534
▁example	-1535
▁Verein	-1536
ital	-1537
ablish	-1538
gangen	-1539
zug	-1540
genommen	-1541
▁budget	-1542
zeug	-1543
reichen	-1544
üß	-1545
aben	-1546
▁prev	-1547
eln	-1548
man	-1549
▁meiner	-1550
ince	-1551
itä	-1552
urther	-1553
▁sect	-1554
▁Ha	-1555
▁cooperation	-1556
derung	-1557
▁Länder	-1558
▁legal	-1559
spar	-1560
stellen	-1561
▁But	-1562
zeich	-1563
▁Y	-1564
▁present	-1565
▁position	-1566
▁object	-1567
alth	-1568
▁thank	-1569
▁würde	-1570
öß	-1571
licher	-1572
gest	-1573
▁200	-1574
▁einige	-1575
▁law	-1576
▁begr	-1577
▁find	-1578
▁ensure	-1579
▁ur	-1580
▁som	-1581
ically	-1582
▁necess	-1583
▁financial	-1584
dem	-1585
▁get	-1586
gese	-1587
ount	-1588
▁sim	-1589
▁place	-1590
▁amendments	-1591
▁Jahren	-1592
▁establish	-1593
ium	-1594
▁compet	-1595
▁opin	-1596
▁allen	-1597
▁neuen	-1598
▁democ	-1599
ace	-1600
tellt	-1601
▁main	-1602
▁Zusammenarbeit	-1603
tegr	-1604
▁Fall	-1605
itive	-1606
ouse	-1607
▁maj	-1608
heiten	-1609
▁Entschließ	-1610
äng	-1611
licht	-1612
ilfe	-1613
▁means	-1614
▁könn	-1615
▁particularly	-1616
bewer	-1617
wä	-1618
▁stand	-1619
▁schon	-1620
▁areas	-1621
▁ange	-1622
▁Finanz	-1623
▁Ö	-1624
unden	-1625
▁1999	-1626
▁problems	-1627
▁proced	-1628
▁Recht	-1629
▁Abstimm	-1630
ble	-1631
▁wäre	-1632
▁resolution	-1633
▁tun	-1634
ordin	-1635
unft	-1636
ollow	-1637
▁auth	-1638
ret	-1639
ond	-1640
ether	-1641
▁Beit	-1642
hol	-1643
ential	-1644
aff	-1645
▁If	-1646
▁Bet	-1647
▁'	-1648
entral	-1649
▁wissen	-1650
▁Entscheid	-1651
▁Änderungsan	-1652
▁world	-1653
ployment	-1654
▁besch	-1655
▁given	-1656
ismus	-1657
▁andere	-1658
ften	-1659
ktor	-1660
▁seine	-1661
falls	-1662
▁Group	-1663
affen	-1664
▁impro	-1665
nisse	-1666
▁implement	-1667
uktur	-1668
▁Gebie	-1669
▁He	-1670
work	-1671
▁entsp	-1672
own	-1673
ird	-1674
▁full	-1675
deut	-1676
▁Fragen	-1677
▁set	-1678
▁before	-1679
▁includ	-1680
orities	-1681
▁6	-1682
usses	-1683
ability	-1684
je	-1685
▁form	-1686
▁repres	-1687
▁All	-1688
▁Teil	-1689
assung	-1690
▁differ	-1691
▁einmal	-1692
▁Ger	-1693
grund	-1694
▁gut	-1695
äuß	-1696
gele	-1697
▁Arbeits	-1698
▁long	-1699
▁sign	-1700
tens	-1701
▁Namen	-1702
rache	-1703
▁sicher	-1704
br	-1705
walt	-1706
fter	-1707
▁give	-1708
▁Hand	-1709
▁machen	-1710
▁terms	-1711
▁Möglichkeit	-1712
ettbewer	-1713
▁av	-1714
hang	-1715
ichts	-1716
ortug	-1717
▁follow	-1718
▁etwas	-1719
▁opinion	-1720
▁Treat	-1721
▁natürlich	-1722
luß	-1723
▁wish	-1724
▁Pl	-1725
▁zwar	-1726
amil	-1727
▁prom	-1728
▁express	-1729
▁without	-1730
schr	-1731
▁neue	-1732
lichkeit	-1733
ality	-1734
immen	-1735
igten	-1736
ettbewerb	-1737
▁issues	-1738
ölk	-1739
▁ke	-1740
▁bek	-1741
▁sec	-1742
▁necessary	-1743
eld	-1744
▁wirtschaft	-1745
▁Unternehmen	-1746
▁extre	-1747
▁however	-1748
abei	-1749
▁high	-1750
▁concerned	-1751
▁Unterstütz	-1752
tra	-1753
▁curr	-1754
▁Fre	-1755
▁require	-1756
▁rat	-1757
ately	-1758
rü	-1759
▁%	-1760
▁deal	-1761
▁Fe	-1762
▁Meinung	-1763
führt	-1764
urs	-1765
▁Regierung	-1766
elf	-1767
idency	-1768
▁allow	-1769
▁zwei	-1770
▁betr	-1771
ho	-1772
▁gest	-1773
▁redu	-1774
strument	-1775
▁notwend	-1776
▁protection	-1777
ys	-1778
cing	-1779
▁House	-1780
fit	-1781
bleme	-1782
▁Verbrauch	-1783
utung	-1784
▁geb	-1785
▁serious	-1786
half	-1787
führung	-1788
▁worden	-1789
▁Welt	-1790
▁Stand	-1791
▁programme	-1792
vour	-1793
▁Unterstützung	-1794
▁.	-1795
▁Bei	-1796
▁behalf	-1797
wirtschaft	-1798
▁gef	-1799
▁principle	-1800
anden	-1801
▁whether	-1802
overnment	-1803
zip	-1804
▁Members	-1805
uft	-1806
▁Schutz	-1807
▁Situation	-1808
gleich	-1809
▁Her	-1810
ost	-1811
annt	-1812
itor	-1813
ught	-1814
▁Zusammenhang	-1815
▁mor	-1816
inder	-1817
▁Am	-1818
ying	-1819
▁consum	-1820
▁Was	-1821
agement	-1822
uge	-1823
▁besteht	-1824
▁decision	-1825
sibility	-1826
ante	-1827
isions	-1828
▁wes	-1829
▁Stra	-1830
▁Haushalts	-1831
▁Ländern	-1832
gung	-1833
etzen	-1834
▁darüber	-1835
lex	-1836
weisen	-1837
verkehr	-1838
▁Deshalb	-1839
▁contro	-1840
ence	-1841
▁speak	-1842
▁Rates	-1843
▁sm	-1844
iften	-1845
▁klar	-1846
▁No	-1847
bene	-1848
▁erforder	-1849
omp	-1850
ible	-1851
▁bed	-1852
llschaft	-1853
innen	-1854
agt	-1855
ules	-1856
▁different	-1857
▁women	-1858
▁At	-1859
undheit	-1860
▁besonder	-1861
wert	-1862
▁seit	-1863
▁whole	-1864
▁auß	-1865
▁On	-1866
▁su	-1867
ache	-1868
gemein	-1869
▁glaub	-1870
▁zurück	-1871
▁del	-1872
▁eing	-1873
▁Debat	-1874
▁kommen	-1875
come	-1876
▁Li	-1877
ende	-1878
▁Intern	-1879
▁Auß	-1880
▁Kos	-1881
anken	-1882
▁näm	-1883
▁since	-1884
▁nämlich	-1885
▁Mad	-1886
ierten	-1887
▁Thema	-1888
zieh	-1889
ilit	-1890
▁ihren	-1891
ücksicht	-1892
▁öff	-1893
gress	-1894
▁regional	-1895
stellung	-1896
▁Kosov	-1897
▁difficult	-1898
▁Präsidentin	-1899
neh	-1900
▁geben	-1901
▁Minister	-1902
ale	-1903
ferenz	-1904
illion	-1905
ärk	-1906
/2000)	-1907
zü	-1908
ided	-1909
▁concl	-1910
▁Wettbewerb	-1911
▁deut	-1912
ginnen	-1913
▁7	-1914
von	-1915
une	-1916
ning	-1917
▁8	-1918
▁komm	-1919
▁min	-1920
▁politischen	-1921
ikel	-1922
▁Besch	-1923
▁proposals	-1924
urity	-1925
▁poin	-1926
▁viele	-1927
▁commit	-1928
▁legislation	-1929
▁voll	-1930
sequ	-1931
▁Abgeordneten	-1932
rieden	-1933
▁Probleme	-1934
▁Abstimmung	-1935
▁9	-1936
▁Bes	-1937
▁fol	-1938
ünd	-1939
lick	-1940
▁stehen	-1941
▁Bede	-1942
▁further	-1943
ialog	-1944
▁opport	-1945
▁second	-1946
ock	-1947
▁größ	-1948
ander	-1949
▁environmental	-1950
racht	-1951
▁basis	-1952
▁Frauen	-1953
▁wirklich	-1954
alk	-1955
▁Fisch	-1956
amental	-1957
▁invest	-1958
▁Bedeutung	-1959
markt	-1960
kunft	-1961
▁subject	-1962
ifft	-1963
▁adopted	-1964
sprache	-1965
▁cr	-1966
liegen	-1967
▁ja	-1968
tain	-1969
lob	-1970
▁come	-1971
▁Kosovo	-1972
entlichen	-1973
par	-1974
▁What	-1975
▁betrifft	-1976
▁accept	-1977
▁darf	-1978
▁dür	-1979
▁few	-1980
▁inde	-1981
▁look	-1982
ächst	-1983
hall	-1984
▁Em	-1985
ivil	-1986
bed	-1987
zept	-1988
▁soc	-1989
▁Madam	-1990
▁Staaten	-1991
ahre	-1992
▁seiner	-1993
▁Gen	-1994
▁cre	-1995
▁bess	-1996
mework	-1997
▁health	-1998
▁mention	-1999
▁19	-2000
▁ide	-2001
pecial	-2002
ünft	-2003
▁meet	-2004
▁cl	-2005
▁val	-2006
▁product	-2007
▁muss	-2008
▁pract	-2009
▁Best	-2010
▁reform	-2011
▁contrib	-2012
▁Disk	-2013
▁back	-2014
ife	-2015
leicht	-2016
▁extrem	-2017
stand	-2018
▁eben	-2019
▁favour	-2020
▁zweit	-2021
▁crit	-2022
gaben	-2023
▁Ne	-2024
▁Vorschlä	-2025
itt	-2026
▁call	-2027
▁pri	-2028
other	-2029
▁happ	-2030
▁Treaty	-2031
▁project	-2032
rachten	-2033
▁Debatte	-2034
▁strateg	-2035
ified	-2036
▁ap	-2037
▁word	-2038
▁proposed	-2039
▁specific	-2040
▁shall	-2041
▁transport	-2042
▁Artikel	-2043
wendung	-2044
▁cond	-2045
▁cost	-2046
▁regulation	-2047
▁ir	-2048
por	-2049
di	-2050
▁äuß	-2051
▁Ausschuß	-2052
▁next	-2053
▁Information	-2054
wirk	-2055
▁result	-2056
tem	-2057
ganisation	-2058
▁davon	-2059
▁abs	-2060
▁Aussprache	-2061
▁commun	-2062
▁Änderungsantrag	-2063
urz	-2064
war	-2065
abil	-2066
▁gent	-2067
reif	-2068
▁daher	-2069
iety	-2070
▁help	-2071
▁quite	-2072
ienst	-2073
▁Sozial	-2074
▁United	-2075
▁sector	-2076
▁unterstützen	-2077
reffen	-2078
adies	-2079
rän	-2080
inzip	-2081
wier	-2082
vement	-2083
glichen	-2084
▁resour	-2085
▁progress	-2086
199	-2087
▁begrüß	-2088
▁letzten	-2089
oti	-2090
ising	-2091
▁done	-2092
▁represent	-2093
▁Verantwort	-2094
upt	-2095
▁Ma	-2096
raft	-2097
druck	-2098
ichte	-2099
▁sens	-2100
▁finanz	-2101
fte	-2102
▁anges	-2103
▁gentlemen	-2104
ystems	-2105
als	-2106
oint	-2107
▁bestimm	-2108
▁Lös	-2109
▁Ange	-2110
lungen	-2111
▁eigen	-2112
hip	-2113
TO	-2114
mes	-2115
▁20	-2116
▁Ind	-2117
▁Aber	-2118
▁clearly	-2119
wards	-2120
▁Amend	-2121
▁lang	-2122
ährend	-2123
▁Kontro	-2124
▁access	-2125
▁verschieden	-2126
iben	-2127
▁Tran	-2128
▁risk	-2129
▁richt	-2130
▁statt	-2131
▁State	-2132
▁gegenüber	-2133
▁person	-2134
▁Verbraucher	-2135
ler	-2136
ually	-2137
stitutions	-2138
ude	-2139
▁var	-2140
▁framework	-2141
▁equ	-2142
▁einzel	-2143
▁Red	-2144
ively	-2145
▁Weise	-2146
fach	-2147
atives	-2148
▁Ansicht	-2149
arante	-2150
▁recht	-2151
ktiv	-2152
▁Afr	-2153
ervor	-2154
▁ander	-2155
ased	-2156
▁negoti	-2157
▁Vol	-2158
▁going	-2159
lobal	-2160
▁Menschenrechte	-2161
schied	-2162
ugen	-2163
ropri	-2164
ffair	-2165
▁Mill	-2166
recht	-2167
▁Fran	-2168
folg	-2169
pecially	-2170
gew	-2171
▁industry	-2172
▁rev	-2173
ierte	-2174
▁child	-2175
häng	-2176
▁working	-2177
yl	-2178
gricult	-2179
ried	-2180
ways	-2181
▁committee	-2182
▁account	-2183
▁imm	-2184
▁deren	-2185
▁gehör	-2186
fet	-2187
▁15	-2188
iele	-2189
▁role	-2190
▁Jahre	-2191
▁Punkt	-2192
▁defin	-2193
prochen	-2194
ply	-2195
maß	-2196
▁stellen	-2197
▁approach	-2198
▁oper	-2199
▁regul	-2200
unächst	-2201
▁unseren	-2202
icle	-2203
▁especially	-2204
hält	-2205
▁Und	-2206
▁air	-2207
▁guarante	-2208
▁Pr	-2209
eich	-2210
▁adv	-2211
ilt	-2212
▁clos	-2213
fra	-2214
▁Di	-2215
ines	-2216
armon	-2217
ething	-2218
▁vorgesch	-2219
▁Durch	-2220
▁gesagt	-2221
▁hervor	-2222
▁ü	-2223
▁Man	-2224
aussch	-2225
▁konk	-2226
igkeiten	-2227
▁Vertrag	-2228
▁control	-2229
att	-2230
▁institutions	-2231
▁pow	-2232
▁resources	-2233
zw	-2234
fety	-2235
erien	-2236
ielen	-2237
osition	-2238
legenheit	-2239
▁agree	-2240
iar	-2241
▁integr	-2242
▁Tur	-2243
dert	-2244
▁bro	-2245
fer	-2246
käm	-2247
▁Fort	-2248
▁compan	-2249
ffairs	-2250
ingungen	-2251
▁-,	-2252
▁Br	-2253
ists	-2254
▁tax	-2255
▁pers	-2256
▁organis	-2257
etzung	-2258
unds	-2259
▁Lage	-2260
▁Zukunft	-2261
▁something	-2262
▁change	-2263
edom	-2264
▁underst	-2265
▁europäische	-2266
ards	-2267
▁after	-2268
▁used	-2269
▁Qu	-2270
gelegt	-2271
gement	-2272
ference	-2273
▁hät	-2274
ights	-2275
▁daran	-2276
gesehen	-2277
▁society	-2278
▁peace	-2279
▁extremely	-2280
ared	-2281
▁general	-2282
▁pay	-2283
▁Beschäft	-2284
▁rules	-2285
▁employment	-2286
▁umf	-2287
▁Rechte	-2288
▁deshalb	-2289
▁appropri	-2290
ivid	-2291
▁1998	-2292
▁colle	-2293
ktionen	-2294
▁UN	-2295
▁down	-2296
▁effort	-2297
▁bew	-2298
▁Tages	-2299
▁rather	-2300
▁Entwicklungs	-2301
▁beg	-2302
ension	-2303
ildung	-2304
mö	-2305
▁Is	-2306
▁Ergeb	-2307
▁Kolleginnen	-2308
ield	-2309
▁gesam	-2310
▁führen	-2311
▁liegt	-2312
▁ze	-2313
ogen	-2314
wär	-2315
▁lassen	-2316
▁during	-2317
▁Ausschusses	-2318
▁vorgeschlagen	-2319
fort	-2320
▁el	-2321
▁itself	-2322
1999	-2323
erdings	-2324
▁safety	-2325
▁positive	-2326
▁lim	-2327
treten	-2328
▁state	-2329
ont	-2330
ennt	-2331
▁cor	-2332
▁Gleich	-2333
▁könnte	-2334
▁Liberal	-2335
ases	-2336
raum	-2337
▁member	-2338
iving	-2339
▁steht	-2340
▁addition	-2341
oney	-2342
verständ	-2343
rodu	-2344
▁aw	-2345
▁vo	-2346
▁exist	-2347
▁Person	-2348
▁importance	-2349
rech	-2350
pfung	-2351
▁Seit	-2352
▁erst	-2353
genda	-2354
▁better	-2355
▁ladies	-2356
▁sowohl	-2357
▁provide	-2358
▁towards	-2359
▁Institution	-2360
▁zusammen	-2361
▁bal	-2362
angen	-2363
▁aller	-2364
▁responsibility	-2365
reten	-2366
▁EUR	-2367
▁third	-2368
▁services	-2369
▁Rolle	-2370
▁glaube	-2371
merk	-2372
▁Dar	-2373
▁These	-2374
▁12	-2375
iesen	-2376
itäten	-2377
▁Ebene	-2378
▁accord	-2379
▁brauch	-2380
ativen	-2381
▁forward	-2382
plan	-2383
▁Ums	-2384
▁Zust	-2385
icient	-2386
▁ess	-2387
▁med	-2388
ccess	-2389
▁govern	-2390
▁während	-2391
▁bestehen	-2392
völk	-2393
▁cap	-2394
ters	-2395
▁continue	-2396
ep	-2397
▁derzeit	-2398
elle	-2399
komm	-2400
blick	-2401
▁read	-2402
▁einge	-2403
▁government	-2404
▁programmes	-2405
▁dr	-2406
▁dabei	-2407
▁large	-2408
pend	-2409
liament	-2410
▁security	-2411
▁three	-2412
ika	-2413
kten	-2414
▁inform	-2415
▁dire	-2416
▁Verordnung	-2417
▁competition	-2418
▁feel	-2419
▁suff	-2420
onds	-2421
▁open	-2422
▁zust	-2423
▁darin	-2424
old	-2425
▁cult	-2426
▁Markt	-2427
▁Parte	-2428
▁gewähr	-2429
▁essential	-2430
▁berücksicht	-2431
pflicht	-2432
amt	-2433
▁Hilfe	-2434
unde	-2435
igungs	-2436
gether	-2437
▁sollen	-2438
ath	-2439
▁Ihre	-2440
▁million	-2441
▁sozialen	-2442
ina	-2443
▁priv	-2444
▁small	-2445
▁points	-2446
▁Presidency	-2447
iation	-2448
▁money	-2449
▁stren	-2450
▁Beispiel	-2451
ratic	-2452
linien	-2453
ably	-2454
▁Vorschläge	-2455
▁adm	-2456
▁bef	-2457
unehmen	-2458
▁various	-2459
▁Produ	-2460
▁needs	-2461
▁Ihr	-2462
though	-2463
▁comple	-2464
▁je	-2465
▁Auff	-2466
sid	-2467
▁Fol	-2468
ierungen	-2469
▁each	-2470
▁Demokrat	-2471
▁conditions	-2472
▁activ	-2473
▁least	-2474
▁Verkehr	-2475
gestellt	-2476
▁einigen	-2477
term	-2478
▁They	-2479
▁Portug	-2480
▁großen	-2481
ctions	-2482
ustrie	-2483
▁Gegen	-2484
▁individ	-2485
▁nationalen	-2486
▁did	-2487
schutz	-2488
iness	-2489
▁bene	-2490
▁drei	-2491
▁really	-2492
▁initiative	-2493
▁And	-2494
hil	-2495
sichtlich	-2496
▁making	-2497
kämpfung	-2498
gabe	-2499
▁aim	-2500
▁fundamental	-2501
▁Med	-2502
▁policies	-2503
▁prec	-2504
▁once	-2505
setzung	-2506
reg	-2507
▁Uns	-2508
stehen	-2509
▁milit	-2510
▁less	-2511
▁aufge	-2512
▁welcome	-2513
▁besonders	-2514
▁understand	-2515
wärt	-2516
▁Bem	-2517
ises	-2518
sweise	-2519
▁dürfen	-2520
▁Europas	-2521
▁appe	-2522
▁start	-2523
▁procedure	-2524
▁10	-2525
oment	-2526
▁hoffe	-2527
▁recog	-2528
bau	-2529
urn	-2530
eits	-2531
▁große	-2532
▁seem	-2533
▁step	-2534
▁ans	-2535
▁bringen	-2536
▁relations	-2537
▁000	-2538
▁absol	-2539
▁regions	-2540
▁Zahl	-2541
▁Not	-2542
▁applic	-2543
spräsident	-2544
duc	-2545
▁occ	-2546
▁short	-2547
umen	-2548
▁non	-2549
bei	-2550
fäh	-2551
▁Ex	-2552
▁Article	-2553
▁Ausdruck	-2554
usion	-2555
▁rece	-2556
▁offen	-2557
schaften	-2558
▁another	-2559
▁involved	-2560
▁verst	-2561
▁ersten	-2562
astr	-2563
zahl	-2564
▁let	-2565
▁lead	-2566
▁introdu	-2567
▁authorities	-2568
▁greater	-2569
ica	-2570
ances	-2571
▁Struktur	-2572
ged	-2573
▁welche	-2574
iders	-2575
▁Form	-2576
▁job	-2577
org	-2578
▁ty	-2579
▁verl	-2580
▁bezug	-2581
▁vi	-2582
▁Regel	-2583
▁Umsetzung	-2584
▁mot	-2585
▁Mehr	-2586
▁Entschließung	-2587
usiness	-2588
▁Lebens	-2589
▁allgemein	-2590
▁Gesundheit	-2591
esellschaft	-2592
aps	-2593
iod	-2594
▁politische	-2595
enzen	-2596
inistr	-2597
▁intend	-2598
▁increase	-2599
▁interests	-2600
▁Auch	-2601
▁deutlich	-2602
spr	-2603
ufen	-2604
ining	-2605
▁become	-2606
▁entsprechen	-2607
igr	-2608
idence	-2609
▁together	-2610
▁Pat	-2611
prü	-2612
▁Standpunkt	-2613
▁kind	-2614
▁Jahres	-2615
▁gerade	-2616
▁technolog	-2617
▁hinaus	-2618
text	-2619
▁enlar	-2620
▁Nat	-2621
▁Erweit	-2622
▁handelt	-2623
ness	-2624
▁nichts	-2625
llig	-2626
ling	-2627
▁waren	-2628
▁always	-2629
▁achieve	-2630
▁grow	-2631
▁agricult	-2632
▁nor	-2633
▁success	-2634
▁ble	-2635
▁tot	-2636
▁Tagesordnung	-2637
ikan	-2638
▁terr	-2639
ean	-2640
▁kurz	-2641
aum	-2642
esen	-2643
▁inner	-2644
▁Lösung	-2645
▁beispiel	-2646
▁Bevölk	-2647
▁opportunity	-2648
▁ihnen	-2649
▁struct	-2650
▁including	-2651
▁Verantwortung	-2652
irm	-2653
▁concerns	-2654
▁notwendig	-2655
▁Wer	-2656
zogen	-2657
zuf	-2658
▁Verwalt	-2659
▁ak	-2660
schein	-2661
gar	-2662
mitt	-2663
▁led	-2664
▁aspect	-2665
▁Ho	-2666
esse	-2667
oting	-2668
▁11	-2669
▁ben	-2670
▁freedom	-2671
▁Regionen	-2672
▁Austr	-2673
▁transpar	-2674
erdem	-2675
▁Energ	-2676
▁avail	-2677
▁fl	-2678
ders	-2679
▁aware	-2680
kes	-2681
▁ME	-2682
utet	-2683
▁kommt	-2684
ry	-2685
▁remain	-2686
ven	-2687
imes	-2688
▁Weg	-2689
▁sei	-2690
▁werde	-2691
▁demand	-2692
▁global	-2693
▁Frieden	-2694
hö	-2695
▁hö	-2696
▁Verhand	-2697
ily	-2698
▁kle	-2699
icial	-2700
verfahren	-2701
▁refer	-2702
▁det	-2703
▁dort	-2704
▁Erklär	-2705
▁taking	-2706
use	-2707
▁Char	-2708
▁based	-2709
▁loc	-2710
▁fight	-2711
▁First	-2712
▁halte	-2713
▁period	-2714
▁business	-2715
▁certainly	-2716
▁EC	-2717
ants	-2718
▁Verfahren	-2719
▁Gebiet	-2720
▁attention	-2721
▁opp	-2722
▁übr	-2723
▁Eine	-2724
bereich	-2725
▁adopt	-2726
▁month	-2727
frage	-2728
thing	-2729
▁solche	-2730
▁prevent	-2731
ify	-2732
▁bl	-2733
▁lea	-2734
pekt	-2735
▁major	-2736
▁Affairs	-2737
▁internal	-2738
▁Präsidentschaft	-2739
▁Grün	-2740
allen	-2741
▁gilt	-2742
zeitig	-2743
▁Fischere	-2744
▁doc	-2745
ented	-2746
▁Wort	-2747
▁äußerst	-2748
▁beispielsweise	-2749
▁Rück	-2750
reifen	-2751
▁genau	-2752
▁individual	-2753
▁Sitz	-2754
ication	-2755
▁current	-2756
▁Regierungs	-2757
heb	-2758
hnt	-2759
▁Zwe	-2760
▁companies	-2761
▁management	-2762
▁institution	-2763
unkte	-2764
rench	-2765
▁Rights	-2766
andid	-2767
▁US	-2768
chan	-2769
grat	-2770
lück	-2771
▁Proje	-2772
ko	-2773
5-01	-2774
alität	-2775
pen	-2776
▁bu	-2777
zen	-2778
▁Reform	-2779
▁economy	-2780
▁Erachten	-2781
▁document	-2782
▁nie	-2783
▁Hier	-2784
▁upon	-2785
▁liberal	-2786
▁erhalten	-2787
▁Erachtens	-2788
▁dessen	-2789
▁demokrat	-2790
asing	-2791
zeß	-2792
racy	-2793
iellen	-2794
erseits	-2795
▁administr	-2796
gegen	-2797
isher	-2798
▁Hinblick	-2799
▁statement	-2800
pfe	-2801
gratul	-2802
▁French	-2803
▁gemeinsamen	-2804
hörden	-2805
bour	-2806
▁Bel	-2807
▁außer	-2808
ffentlich	-2809
▁Institutionen	-2810
züglich	-2811
▁request	-2812
▁ebenfalls	-2813
utzen	-2814
sterreich	-2815
▁Sol	-2816
eless	-2817
per	-2818
▁alles	-2819
▁Binnen	-2820
▁Just	-2821
erecht	-2822
ktions	-2823
▁trade	-2824
▁implementation	-2825
▁educ	-2826
▁danken	-2827
▁Fä	-2828
ller	-2829
▁fran	-2830
▁Gesetz	-2831
▁innerhalb	-2832
letz	-2833
▁often	-2834
▁einzelnen	-2835
weg	-2836
▁products	-2837
▁congratul	-2838
▁yet	-2839
▁subst	-2840
▁Gemeinsam	-2841
▁creat	-2842
leist	-2843
▁farm	-2844
ationen	-2845
rück	-2846
▁Geld	-2847
▁akzept	-2848
orm	-2849
rechts	-2850
▁instrument	-2851
hlen	-2852
▁beim	-2853
▁majority	-2854
utes	-2855
▁wohl	-2856
▁reach	-2857
▁recogn	-2858
▁vorliegen	-2859
gang	-2860
▁field	-2861
ification	-2862
▁schaffen	-2863
▁To	-2864
unter	-2865
▁draft	-2866
▁famil	-2867
▁water	-2868
▁Stellung	-2869
net	-2870
mals	-2871
earch	-2872
▁mind	-2873
▁treat	-2874
▁words	-2875
▁gegeben	-2876
▁Erweiterung	-2877
▁Gemeinschafts	-2878
▁ermö	-2879
▁complete	-2880
▁research	-2881
lev	-2882
▁Frei	-2883
nehmer	-2884
▁begin	-2885
▁darum	-2886
▁available	-2887
▁Government	-2888
▁Zug	-2889
▁pass	-2890
▁happen	-2891
▁Millionen	-2892
ceed	-2893
ined	-2894
▁erreichen	-2895
▁vorgesehen	-2896
▁enlargement	-2897
▁energ	-2898
▁children	-2899
▁mean	-2900
▁questions	-2901
urf	-2902
▁heiß	-2903
▁Forsch	-2904
spolitik	-2905
▁Grundlage	-2906
mäß	-2907
▁erg	-2908
▁näch	-2909
▁Kinder	-2910
▁members	-2911
▁Sub	-2912
▁groups	-2913
schriften	-2914
▁Initiative	-2915
alen	-2916
▁ant	-2917
asser	-2918
▁gemacht	-2919
▁viol	-2920
setzen	-2921
benso	-2922
ultur	-2923
▁traff	-2924
haps	-2925
ingle	-2926
gelung	-2927
▁Vertre	-2928
▁having	-2929
▁simply	-2930
over	-2931
▁Bar	-2932
▁obl	-2933
▁lack	-2934
altung	-2935
▁System	-2936
▁quality	-2937
row	-2938
▁enc	-2939
▁food	-2940
▁verschiedenen	-2941
zös	-2942
▁Ende	-2943
▁Luft	-2944
▁zahl	-2945
abhäng	-2946
▁eindeut	-2947
▁Amendment	-2948
▁following	-2949
▁Rep	-2950
▁Wor	-2951
▁Wahl	-2952
▁finden	-2953
▁address	-2954
▁decisions	-2955
▁14	-2956
wach	-2957
▁tas	-2958
▁hig	-2959
teid	-2960
▁Mar	-2961
▁mod	-2962
▁Dank	-2963
ommend	-2964
▁benefit	-2965
▁wichtige	-2966
SE	-2967
▁pop	-2968
gern	-2969
▁euro	-2970
▁schließ	-2971
konferenz	-2972
▁objectives	-2973
▁ern	-2974
▁weiß	-2975
▁nehmen	-2976
ielt	-2977
ländern	-2978
▁def	-2979
▁gar	-2980
ziehungen	-2981
▁responsible	-2982
▁För	-2983
▁Außen	-2984
▁table	-2985
igin	-2986
▁hatte	-2987
▁Kosten	-2988
▁weniger	-2989
▁democratic	-2990
▁bo	-2991
▁With	-2992
▁free	-2993
▁Auffassung	-2994
▁Entscheidung	-2995
▁amendment	-2996
agen	-2997
ator	-2998
▁show	-2999
▁Dienst	-3000
▁coordin	-3001
▁weitere	-3002
wirkungen	-3003
▁Anwendung	-3004
▁ple	-3005
affung	-3006
gesetzt	-3007
▁special	-3008
isches	-3009
▁create	-3010
▁gegenwärt	-3011
▁vielleicht	-3012
so	-3013
▁ung	-3014
▁schne	-3015
▁versuch	-3016
▁hinsichtlich	-3017
com	-3018
oung	-3019
▁single	-3020
▁Verbess	-3021
▁mentioned	-3022
▁Diskuss	-3023
reicht	-3024
▁erforderlich	-3025
▁Kl	-3026
▁exc	-3027
▁cases	-3028
▁eig	-3029
▁beiden	-3030
co	-3031
▁aff	-3032
haltung	-3033
▁region	-3034
▁effective	-3035
▁NA	-3036
weis	-3037
▁Tür	-3038
onger	-3039
▁besser	-3040
▁apply	-3041
ross	-3042
oten	-3043
▁Lis	-3044
▁force	-3045
▁Geschäft	-3046
ira	-3047
fern	-3048
▁Für	-3049
▁erste	-3050
▁Herren	-3051
▁einfach	-3052
▁Arbeitsp	-3053
▁although	-3054
▁text	-3055
fordert	-3056
▁würden	-3057
▁entwick	-3058
▁brauchen	-3059
vorschriften	-3060
CO	-3061
hing	-3062
erdam	-3063
▁play	-3064
▁jeder	-3065
sterdam	-3066
▁harmon	-3067
▁gemeinsame	-3068
▁men	-3069
▁meines	-3070
▁moment	-3071
▁stellt	-3072
verständlich	-3073
▁Binnenmarkt	-3074
▁Informationen	-3075
▁Amer	-3076
▁mult	-3077
▁press	-3078
scheiden	-3079
▁projects	-3080
hm	-3081
ix	-3082
merksam	-3083
▁Bekämpfung	-3084
leit	-3085
▁disp	-3086
▁keinen	-3087
▁seinen	-3088
▁Schaffung	-3089
▁Pe	-3090
tellen	-3091
▁funds	-3092
▁recommend	-3093
▁weiterhin	-3094
here	-3095
▁Demokratie	-3096
eder	-3097
▁fun	-3098
▁Mitte	-3099
ides	-3100
▁inn	-3101
▁civil	-3102
▁halten	-3103
▁Amsterdam	-3104
▁behand	-3105
▁monitor	-3106
▁sprechen	-3107
▁internationalen	-3108
▁hon	-3109
▁Finally	-3110
ahn	-3111
cen	-3112
less	-3113
▁ann	-3114
fonds	-3115
annten	-3116
▁Region	-3117
▁Verpflicht	-3118
äd	-3119
ule	-3120
arta	-3121
▁Ital	-3122
▁restr	-3123
▁Balk	-3124
▁doub	-3125
▁post	-3126
atsäch	-3127
▁Sport	-3128
▁Internet	-3129
its	-3130
▁vö	-3131
▁eth	-3132
▁sug	-3133
ielle	-3134
▁life	-3135
▁power	-3136
▁Programm	-3137
erb	-3138
ipf	-3139
iges	-3140
vest	-3141
▁care	-3142
▁parliament	-3143
▁Wirtschafts	-3144
ären	-3145
▁teil	-3146
▁young	-3147
uc	-3148
ßen	-3149
▁französ	-3150
▁matters	-3151
▁objective	-3152
enten	-3153
▁vielen	-3154
▁angenommen	-3155
alled	-3156
ziehen	-3157
sto	-3158
▁origin	-3159
▁Daher	-3160
▁assess	-3161
▁actually	-3162
▁Vors	-3163
▁erwä	-3164
▁hist	-3165
▁künft	-3166
einander	-3167
schließend	-3168
▁fore	-3169
▁sure	-3170
▁waste	-3171
▁Beitrag	-3172
▁13	-3173
idar	-3174
bereit	-3175
▁service	-3176
anger	-3177
ogra	-3178
▁Krit	-3179
▁joint	-3180
▁aufgrund	-3181
▁guarantee	-3182
▁allerdings	-3183
▁Pal	-3184
orgen	-3185
▁contain	-3186
▁Auswirkungen	-3187
▁voted	-3188
▁agenda	-3189
▁eigenen	-3190
▁negotiations	-3191
iver	-3192
round	-3193
▁qual	-3194
frastr	-3195
▁proper	-3196
▁vers	-3197
▁things	-3198
▁appropriate	-3199
▁Fund	-3200
▁denke	-3201
ived	-3202
osed	-3203
▁draw	-3204
▁fully	-3205
▁others	-3206
▁Interesse	-3207
▁Wettbewerbs	-3208
leis	-3209
▁ihrem	-3210
ummit	-3211
usätz	-3212
▁verbess	-3213
illeg	-3214
▁might	-3215
▁sogar	-3216
serv	-3217
▁Gew	-3218
▁sur	-3219
▁wee	-3220
▁rail	-3221
▁Ziele	-3222
program	-3223
▁protect	-3224
ifiz	-3225
stens	-3226
▁local	-3227
▁colleag	-3228
▁Abkommen	-3229
▁You	-3230
▁disk	-3231
▁erne	-3232
indest	-3233
▁agreements	-3234
fragen	-3235
alle	-3236
wurf	-3237
▁bod	-3238
▁past	-3239
uppe	-3240
▁Swed	-3241
folgen	-3242
▁erinn	-3243
▁gehen	-3244
▁wenig	-3245
▁Abgeordnete	-3246
ünf	-3247
sätz	-3248
ände	-3249
twort	-3250
▁heißt	-3251
▁jeden	-3252
▁stärk	-3253
▁parties	-3254
▁context	-3255
▁Pri	-3256
▁particip	-3257
▁Wieder	-3258
▁Antwort	-3259
▁Conference	-3260
fang	-3261
▁Social	-3262
▁Geschäfts	-3263
▁increasing	-3264
▁Ratspräsident	-3265
ners	-3266
drück	-3267
elves	-3268
urteil	-3269
rotz	-3270
▁Fest	-3271
▁hätte	-3272
▁meinen	-3273
▁Gesellschaft	-3274
▁Dam	-3275
▁Pre	-3276
▁bor	-3277
▁eng	-3278
▁exam	-3279
▁Organisation	-3280
▁stud	-3281
ätigkeit	-3282
▁conflic	-3283
ims	-3284
ourt	-3285
▁Nor	-3286
ritten	-3287
▁democracy	-3288
ograph	-3289
▁thems	-3290
▁assist	-3291
▁schwer	-3292
gangenen	-3293
▁previous	-3294
▁themselves	-3295
ove	-3296
▁dist	-3297
▁regarding	-3298
▁principles	-3299
▁Bedingungen	-3300
.)	-3301
ba	-3302
▁My	-3303
▁stress	-3304
jen	-3305
▁beit	-3306
▁caus	-3307
ichtet	-3308
▁efforts	-3309
▁tatsäch	-3310
voll	-3311
▁ago	-3312
chnolog	-3313
ialogue	-3314
▁Second	-3315
▁subsid	-3316
▁Rei	-3317
▁Gree	-3318
▁prep	-3319
länder	-3320
entliche	-3321
▁Convention	-3322
▁ihm	-3323
itäts	-3324
uppen	-3325
▁öffentlichen	-3326
cell	-3327
▁resul	-3328
zustellen	-3329
fortun	-3330
▁ident	-3331
▁signific	-3332
▁legislative	-3333
▁sehen	-3334
ake	-3335
ars	-3336
vious	-3337
▁fish	-3338
▁morgen	-3339
▁reports	-3340
▁Programme	-3341
▁Interessen	-3342
hend	-3343
▁sport	-3344
▁schwier	-3345
öt	-3346
fung	-3347
▁governments	-3348
ize	-3349
baren	-3350
▁Damen	-3351
▁day	-3352
▁Bevölkerung	-3353
lied	-3354
▁pur	-3355
▁Part	-3356
▁Woch	-3357
▁Party	-3358
zunehmen	-3359
▁War	-3360
▁while	-3361
▁völlig	-3362
▁systems	-3363
▁Vereinigten	-3364
▁bil	-3365
▁due	-3366
▁illeg	-3367
▁never	-3368
▁Berichts	-3369
▁education	-3370
mor	-3371
▁Fr	-3372
▁cent	-3373
ichten	-3374
▁indeed	-3375
▁bekannt	-3376
bur	-3377
▁sit	-3378
dition	-3379
▁Voraus	-3380
▁gehört	-3381
akt	-3382
key	-3383
▁strengt	-3384
iken	-3385
▁Prior	-3386
▁Überein	-3387
mehr	-3388
▁wahr	-3389
▁recent	-3390
▁concerning	-3391
lexib	-3392
▁Tats	-3393
ategie	-3394
finden	-3395
▁Court	-3396
▁Aufgabe	-3397
▁enthalten	-3398
▁Prodi	-3399
▁costs	-3400
▁Co	-3401
▁Prot	-3402
▁indem	-3403
▁arbeit	-3404
▁months	-3405
▁Kontrolle	-3406
rael	-3407
▁ear	-3408
▁plan	-3409
▁cover	-3410
▁doing	-3411
▁2001	-3412
▁versch	-3413
▁Ur	-3414
oper	-3415
▁emph	-3416
▁among	-3417
▁Kultur	-3418
▁China	-3419
▁enter	-3420
▁workers	-3421
▁Kommissarin	-3422
ics	-3423
▁she	-3424
▁consumer	-3425
selves	-3426
▁event	-3427
▁longer	-3428
▁Behörden	-3429
▁unterschied	-3430
▁Entschließungs	-3431
▁vict	-3432
▁Turkey	-3433
atis	-3434
▁net	-3435
jenigen	-3436
▁Invest	-3437
▁encour	-3438
▁improve	-3439
▁standards	-3440
▁50	-3441
onen	-3442
▁item	-3443
▁keep	-3444
▁answer	-3445
inen	-3446
▁comes	-3447
▁Uhr	-3448
▁Notwend	-3449
fs	-3450
▁Verfü	-3451
▁Verhandlungen	-3452
kei	-3453
aged	-3454
hilfe	-3455
▁Doch	-3456
▁Viel	-3457
▁found	-3458
▁bisher	-3459
government	-3460
▁Förderung	-3461
▁Beziehungen	-3462
▁unterstützt	-3463
ott	-3464
ritts	-3465
roffen	-3466
▁perhaps	-3467
▁reasons	-3468
▁dialogue	-3469
▁discussion	-3470
ingt	-3471
orge	-3472
enste	-3473
hilfen	-3474
▁zunächst	-3475
▁tal	-3476
▁Sicht	-3477
▁Zugang	-3478
▁contra	-3479
legation	-3480
▁currently	-3481
rete	-3482
lands	-3483
▁Vertra	-3484
▁strong	-3485
haft	-3486
▁jud	-3487
▁Text	-3488
▁poll	-3489
ringen	-3490
▁erreicht	-3491
▁activities	-3492
▁30	-3493
▁lab	-3494
▁Reihe	-3495
▁Zweit	-3496
ination	-3497
▁absolute	-3498
▁experien	-3499
lei	-3500
imum	-3501
▁gener	-3502
üsse	-3503
▁bzw	-3504
ission	-3505
atterin	-3506
▁Türkei	-3507
▁för	-3508
▁vis	-3509
griff	-3510
▁konn	-3511
▁consequ	-3512
▁Mehrheit	-3513
▁ourselves	-3514
governmental	-3515
mut	-3516
▁char	-3517
morrow	-3518
▁oblig	-3519
▁könnten	-3520
▁tomorrow	-3521
▁entscheiden	-3522
anke	-3523
▁erz	-3524
bildung	-3525
zess	-3526
▁idea	-3527
▁Dieser	-3528
▁solution	-3529
ativ	-3530
ches	-3531
ternal	-3532
▁posit	-3533
▁ebenso	-3534
▁fisher	-3535
▁Qual	-3536
deutet	-3537
▁enough	-3538
▁him	-3539
ledge	-3540
▁energy	-3541
▁nächsten	-3542
▁wichtigen	-3543
▁communication	-3544
▁opt	-3545
▁erklär	-3546
▁humanit	-3547
▁nothing	-3548
▁Regierungen	-3549
ilung	-3550
▁purp	-3551
prä	-3552
anges	-3553
▁anal	-3554
▁strategy	-3555
ubl	-3556
inge	-3557
trägen	-3558
▁Dialog	-3559
▁carried	-3560
/1999	-3561
▁verfü	-3562
▁regulations	-3563
▁Landwirtschaft	-3564
bt	-3565
▁zie	-3566
enken	-3567
▁NATO	-3568
ateral	-3569
ünschen	-3570
▁gestellt	-3571
▁congratulate	-3572
üd	-3573
erence	-3574
▁gefähr	-3575
▁soziale	-3576
▁technical	-3577
ums	-3578
ittle	-3579
ivers	-3580
arbeiten	-3581
atory	-3582
▁Secondly	-3583
▁Notwendigkeit	-3584
self	-3585
▁meeting	-3586
aßt	-3587
▁Let	-3588
immung	-3589
▁Famil	-3590
▁Gesch	-3591
▁final	-3592
▁diskut	-3593
▁partners	-3594
▁procedures	-3595
▁Verbesserung	-3596
bon	-3597
ffice	-3598
pfehl	-3599
▁bedeut	-3600
▁emphas	-3601
▁weiteren	-3602
▁Währ	-3603
▁Schul	-3604
▁maintain	-3605
..	-3606
▁unt	-3607
umente	-3608
utzung	-3609
▁initi	-3610
omat	-3611
▁Flug	-3612
▁Trans	-3613
▁sever	-3614
▁Selbst	-3615
▁Österreich	-3616
▁fünf	-3617
ennung	-3618
iglich	-3619
▁states	-3620
▁undert	-3621
ency	-3622
ican	-3623
▁Als	-3624
▁Dok	-3625
worten	-3626
▁gesamten	-3627
▁relation	-3628
▁link	-3629
▁little	-3630
))	-3631
ER	-3632
reiben	-3633
▁geschlossen	-3634
ym	-3635
/00	-3636
▁honour	-3637
fre	-3638
▁eas	-3639
▁oft	-3640
itten	-3641
▁four	-3642
▁ernst	-3643
▁makes	-3644
▁Schluß	-3645
▁Stabil	-3646
richtung	-3647
▁Gipf	-3648
üh	-3649
cher	-3650
▁key	-3651
▁conv	-3652
▁Nicht	-3653
▁demon	-3654
▁share	-3655
ausschuß	-3656
immungen	-3657
▁challen	-3658
▁results	-3659
uese	-3660
▁Brit	-3661
▁line	-3662
▁verw	-3663
▁Charta	-3664
▁unserem	-3665
▁bedeutet	-3666
▁Bereichen	-3667
▁Erklärung	-3668
▁lediglich	-3669
▁agricultural	-3670
▁Kön	-3671
ators	-3672
▁meinem	-3673
▁Portuguese	-3674
arf	-3675
weil	-3676
▁gute	-3677
gliche	-3678
▁Nr	-3679
▁road	-3680
▁seems	-3681
▁growth	-3682
cr	-3683
ban	-3684
irc	-3685
ähl	-3686
iffen	-3687
staat	-3688
▁fair	-3689
▁Möglichkeiten	-3690
▁Gre	-3691
▁gra	-3692
frist	-3693
ingen	-3694
sehen	-3695
▁actions	-3696
ücht	-3697
▁German	-3698
▁Inform	-3699
▁excell	-3700
▁include	-3701
ift	-3702
aper	-3703
outh	-3704
▁Empfehl	-3705
▁Tag	-3706
▁land	-3707
▁Wo	-3708
5-00	-3709
Europ	-3710
▁Komp	-3711
▁dring	-3712
▁wirksam	-3713
wür	-3714
orth	-3715
▁expl	-3716
▁true	-3717
▁tabled	-3718
▁excellent	-3719
▁San	-3720
▁Charter	-3721
av	-3722
ully	-3723
atast	-3724
▁Sektor	-3725
atastrop	-3726
▁angesichts	-3727
▁25	-3728
▁bre	-3729
▁circ	-3730
riften	-3731
▁organisations	-3732
line	-3733
▁Eng	-3734
▁fall	-3735
▁guid	-3736
▁Volks	-3737
▁findet	-3738
▁ihn	-3739
▁fail	-3740
burg	-3741
▁Opf	-3742
ommun	-3743
▁priority	-3744
▁provided	-3745
▁foreign	-3746
▁vern	-3747
▁vier	-3748
▁Konfl	-3749
▁danger	-3750
▁production	-3751
gent	-3752
hens	-3753
▁Ris	-3754
▁Prinzip	-3755
yp	-3756
cco	-3757
▁gee	-3758
▁mer	-3759
▁rad	-3760
▁crime	-3761
▁Personen	-3762
▁Verfügung	-3763
▁Angelegenheit	-3764
ij	-3765
fully	-3766
▁Feira	-3767
▁erwar	-3768
▁Wasser	-3769
▁entire	-3770
▁immigr	-3771
▁richtig	-3772
fortunately	-3773
cken	-3774
atisf	-3775
ither	-3776
▁Schritt	-3777
▁aspects	-3778
▁consumers	-3779
▁Vorschriften	-3780
▁Aspe	-3781
▁Staats	-3782
ians	-3783
▁Wirk	-3784
uclear	-3785
▁expect	-3786
inne	-3787
ethod	-3788
▁sett	-3789
▁Gefahr	-3790
▁obvious	-3791
▁military	-3792
ood	-3793
▁Zum	-3794
▁pot	-3795
▁Denn	-3796
ications	-3797
▁continu	-3798
maßnahmen	-3799
▁training	-3800
▁gleichzeitig	-3801
ckt	-3802
ustain	-3803
ortugies	-3804
▁farmers	-3805
ins	-3806
▁sag	-3807
stell	-3808
zentr	-3809
▁Leit	-3810
▁rest	-3811
▁Antrag	-3812
▁extend	-3813
▁gelten	-3814
▁discrimin	-3815
▁portugies	-3816
▁commitment	-3817
aut	-3818
imme	-3819
rang	-3820
▁amb	-3821
▁mar	-3822
▁ret	-3823
▁übrigen	-3824
▁Tatsache	-3825
▁official	-3826
▁vertreten	-3827
▁term	-3828
▁folgen	-3829
▁significant	-3830
iew	-3831
▁schnell	-3832
▁umfassen	-3833
ai	-3834
alten	-3835
▁führ	-3836
▁Leben	-3837
legenheiten	-3838
▁Damit	-3839
▁submit	-3840
▁Energie	-3841
▁strengthen	-3842
most	-3843
▁Leg	-3844
▁excl	-3845
▁basic	-3846
▁genommen	-3847
schaftlichen	-3848
▁Gemeinsamen	-3849
heben	-3850
▁Fern	-3851
▁stage	-3852
▁agreed	-3853
▁Richtung	-3854
▁bestimmte	-3855
▁Kr	-3856
▁erfü	-3857
▁supp	-3858
▁seinem	-3859
▁Position	-3860
▁developing	-3861
▁bel	-3862
aking	-3863
▁until	-3864
▁wobei	-3865
gebracht	-3866
▁Verteid	-3867
▁Mitteilung	-3868
▁Ob	-3869
ampf	-3870
üssel	-3871
kommens	-3872
▁eindeutig	-3873
▁Informations	-3874
folgt	-3875
enntnis	-3876
leistet	-3877
riminal	-3878
▁several	-3879
alu	-3880
part	-3881
verb	-3882
▁Tod	-3883
▁Africa	-3884
▁eigentlich	-3885
▁population	-3886
▁Sicherheits	-3887
fert	-3888
fälle	-3889
stellt	-3890
▁Democ	-3891
zulegen	-3892
▁provisions	-3893
▁Beschäftigung	-3894
ißb	-3895
▁Asyl	-3896
▁inst	-3897
ulture	-3898
▁Thank	-3899
▁voting	-3900
▁USA	-3901
▁angem	-3902
▁erheb	-3903
▁sense	-3904
▁Koordin	-3905
ürz	-3906
▁Ira	-3907
▁heraus	-3908
fence	-3909
lückw	-3910
▁lange	-3911
mitteln	-3912
schritte	-3913
hes	-3914
ode	-3915
pite	-3916
▁Min	-3917
iterr	-3918
▁held	-3919
▁Dritt	-3920
▁Außerdem	-3921
az	-3922
que	-3923
hnen	-3924
side	-3925
▁Bas	-3926
▁1997	-3927
▁seen	-3928
▁expressed	-3929
fft	-3930
▁clar	-3931
▁eingehen	-3932
▁according	-3933
▁presented	-3934
▁berücksichtigt	-3935
ikt	-3936
▁Raum	-3937
▁either	-3938
▁fordern	-3939
arbeitung	-3940
▁Zweitens	-3941
▁Gelegenheit	-3942
pid	-3943
last	-3944
▁hold	-3945
▁offer	-3946
▁quick	-3947
iterran	-3948
▁raised	-3949
lätz	-3950
▁grund	-3951
▁constr	-3952
▁solchen	-3953
istischen	-3954
▁Zeitpunkt	-3955
tent	-3956
lling	-3957
▁derart	-3958
▁unabhäng	-3959
lt	-3960
▁befür	-3961
▁Partei	-3962
▁verhin	-3963
▁unseres	-3964
▁prepared	-3965
▁Industrie	-3966
▁Vereinbar	-3967
▁fr	-3968
wand	-3969
▁Res	-3970
peten	-3971
▁employ	-3972
▁vorgelegt	-3973
▁wesentlich	-3974
▁established	-3975
▁contribution	-3976
ested	-3977
under	-3978
änger	-3979
▁soon	-3980
ysteme	-3981
▁build	-3982
▁thing	-3983
▁Israel	-3984
▁Anfrage	-3985
▁comprom	-3986
▁geführt	-3987
ieten	-3988
▁highl	-3989
▁method	-3990
fähigkeit	-3991
▁practice	-3992
bod	-3993
more	-3994
▁Groß	-3995
▁repe	-3996
▁Punkte	-3997
▁needed	-3998
▁zusätz	-3999
organisation	-4000
▁bitte	-4001
▁facil	-4002
▁Erzeug	-4003
▁Transpar	-4004
▁Änderung	-4005
ata	-4006
best	-4007
▁whose	-4008
▁Abschließend	-4009
lassen	-4010
▁nature	-4011
▁achieved	-4012
▁grundlegen	-4013
obil	-4014
ocol	-4015
▁type	-4016
▁Diskussion	-4017
▁,	-4018
gency	-4019
▁turn	-4020
gument	-4021
▁delay	-4022
▁beteil	-4023
lemented	-4024
▁Austria	-4025
▁Fortschritte	-4026
app	-4027
ests	-4028
▁etwa	-4029
uction	-4030
wertung	-4031
▁analys	-4032
▁leider	-4033
▁Entscheidungen	-4034
▁foc	-4035
▁frü	-4036
indung	-4037
▁profit	-4038
▁required	-4039
▁conne	-4040
▁Themen	-4041
▁changes	-4042
▁durchge	-4043
▁betreffen	-4044
▁hinweisen	-4045
itim	-4046
▁Our	-4047
ester	-4048
▁Einw	-4049
▁Serb	-4050
aterial	-4051
verkehrs	-4052
▁Mitglieder	-4053
▁Arbeitsplätz	-4054
▁Zus	-4055
pendent	-4056
▁sustain	-4057
forderungen	-4058
▁WTO	-4059
▁Direct	-4060
▁Gründen	-4061
ichen	-4062
entions	-4063
prinzip	-4064
▁liegen	-4065
▁ve	-4066
▁star	-4067
reiche	-4068
▁Absch	-4069
▁Seite	-4070
▁asked	-4071
iterranean	-4072
gu	-4073
yn	-4074
▁Agr	-4075
▁Aut	-4076
ences	-4077
geleg	-4078
▁Bank	-4079
▁elect	-4080
▁Flücht	-4081
▁pa	-4082
▁Pra	-4083
▁low	-4084
ennen	-4085
▁Will	-4086
▁Patten	-4087
▁values	-4088
imension	-4089
▁suggest	-4090
▁Zunächst	-4091
▁everyone	-4092
▁Kommissions	-4093
▁Transparenz	-4094
stead	-4095
▁asyl	-4096
▁macht	-4097
▁prakt	-4098
▁stark	-4099
▁decided	-4100
ffentlichkeit	-4101
rieg	-4102
▁Lin	-4103
▁beh	-4104
elines	-4105
▁schein	-4106
▁markets	-4107
▁begrüßen	-4108
▁betroffen	-4109
bare	-4110
▁Jan	-4111
▁nam	-4112
▁fast	-4113
kontro	-4114
▁Integr	-4115
▁motion	-4116
arbeitet	-4117
▁movement	-4118
imal	-4119
okoll	-4120
▁critic	-4121
▁impact	-4122
▁victims	-4123
▁assistance	-4124
▁Öffentlichkeit	-4125
haupt	-4126
▁Human	-4127
▁relev	-4128
▁total	-4129
▁asylum	-4130
▁application	-4131
▁europäischer	-4132
spro	-4133
▁cru	-4134
▁above	-4135
▁Vorsitz	-4136
▁Ir	-4137
bahn	-4138
▁zweite	-4139
abon	-4140
▁akt	-4141
ession	-4142
issabon	-4143
▁candid	-4144
▁histor	-4145
▁Sitzung	-4146
▁private	-4147
▁ban	-4148
▁rac	-4149
iding	-4150
▁assoc	-4151
▁Lisbon	-4152
▁zuständ	-4153
▁existing	-4154
ifel	-4155
▁ethn	-4156
▁move	-4157
▁Daten	-4158
▁refuge	-4159
▁Lissabon	-4160
▁MED	-4161
▁jobs	-4162
legung	-4163
▁broad	-4164
wes	-4165
▁Den	-4166
▁Bemerk	-4167
▁saying	-4168
ald	-4169
cies	-4170
inki	-4171
▁Kap	-4172
▁Plen	-4173
▁Quest	-4174
▁disch	-4175
elsinki	-4176
▁Angelegenheiten	-4177
▁beha	-4178
▁poor	-4179
▁Folgen	-4180
▁satisf	-4181
gewiesen	-4182
▁Vertreter	-4183
auer	-4184
polit	-4185
gungen	-4186
▁unterb	-4187
▁balance	-4188
▁cultural	-4189
▁external	-4190
▁Arbeitnehmer	-4191
▁Mal	-4192
▁One	-4193
▁Rede	-4194
▁head	-4195
▁hoch	-4196
▁note	-4197
▁Sinne	-4198
▁unver	-4199
▁hatten	-4200
▁remind	-4201
▁Helsinki	-4202
schließlich	-4203
▁Ergebnisse	-4204
▁transparency	-4205
edi	-4206
▁Pfl	-4207
▁che	-4208
▁comb	-4209
▁Sache	-4210
▁getan	-4211
▁criter	-4212
▁setzen	-4213
▁funding	-4214
asch	-4215
▁cla	-4216
▁task	-4217
vorsch	-4218
▁specif	-4219
▁promote	-4220
▁stimmen	-4221
▁ph	-4222
▁Wach	-4223
▁Erfahr	-4224
▁France	-4225
▁verein	-4226
▁General	-4227
▁Schwier	-4228
▁tatsächlich	-4229
▁coordination	-4230
folge	-4231
nissen	-4232
▁keiner	-4233
minister	-4234
▁Instrument	-4235
▁sufficient	-4236
▁throughout	-4237
):	-4238
by	-4239
angt	-4240
ufig	-4241
▁Eisen	-4242
▁cause	-4243
▁Steuer	-4244
▁bleiben	-4245
▁Kons	-4246
▁Frank	-4247
isis	-4248
mden	-4249
▁Ant	-4250
wegen	-4251
▁beant	-4252
zeichne	-4253
▁Erfolg	-4254
▁Einführung	-4255
oss	-4256
▁wegen	-4257
itionen	-4258
▁levels	-4259
▁Regelung	-4260
▁approved	-4261
▁gestimmt	-4262
▁presidency	-4263
▁Richtlinien	-4264
▁Kom	-4265
arian	-4266
▁Janu	-4267
▁data	-4268
▁focus	-4269
olution	-4270
▁Heraus	-4271
▁großer	-4272
▁Ergebnis	-4273
▁guidelines	-4274
öff	-4275
▁Dec	-4276
▁prof	-4277
stelle	-4278
▁Natur	-4279
▁Erstens	-4280
▁Fischerei	-4281
▁implemented	-4282
▁five	-4283
nommen	-4284
▁Kampf	-4285
ziehung	-4286
gerungen	-4287
geschlossen	-4288
Pro	-4289
ärm	-4290
hrte	-4291
liches	-4292
▁closed	-4293
▁Verkehrs	-4294
▁Beitritts	-4295
igte	-4296
legt	-4297
▁Pol	-4298
▁safe	-4299
spruch	-4300
griffen	-4301
▁tragen	-4302
▁Aktions	-4303
▁ermöglichen	-4304
ons	-4305
▁18	-4306
▁Tat	-4307
▁Span	-4308
▁attem	-4309
▁const	-4310
▁extent	-4311
▁nuclear	-4312
▁included	-4313
gesellschaft	-4314
▁Grundrechte	-4315
▁International	-4316
nehm	-4317
▁san	-4318
▁Rass	-4319
▁fort	-4320
▁Bestimmungen	-4321
▁Durchführung	-4322
▁ko	-4323
▁sl	-4324
iers	-4325
isely	-4326
▁Völk	-4327
▁arbeiten	-4328
▁requirements	-4329
▁Liberalisierung	-4330
-0	-4331
ires	-4332
▁doubt	-4333
▁crisis	-4334
drücklich	-4335
▁discrimination	-4336
son	-4337
geln	-4338
unities	-4339
▁erster	-4340
▁content	-4341
▁verstär	-4342
▁Strategie	-4343
cep	-4344
▁Mil	-4345
▁Agrar	-4346
▁Opfer	-4347
▁determ	-4348
▁aufgenommen	-4349
pre	-4350
ült	-4351
▁folgt	-4352
▁conflict	-4353
▁criminal	-4354
▁gebracht	-4355
▁response	-4356
▁completely	-4357
▁vergangenen	-4358
go	-4359
rief	-4360
stre	-4361
▁Tra	-4362
▁länd	-4363
▁stop	-4364
▁verg	-4365
▁limit	-4366
▁obwohl	-4367
▁scient	-4368
▁Dokument	-4369
▁Vertrags	-4370
▁Stellungnahme	-4371
▁berücksichtigen	-4372
bel	-4373
▁21	-4374
▁Ju	-4375
bourg	-4376
ienen	-4377
▁Organ	-4378
▁affect	-4379
▁Firstly	-4380
▁correct	-4381
▁Kenntnis	-4382
▁Russ	-4383
▁Dabei	-4384
▁sagte	-4385
▁Bürgern	-4386
▁initiatives	-4387
sprechen	-4388
▁angesprochen	-4389
uten	-4390
▁recon	-4391
▁suffer	-4392
▁leisten	-4393
▁Gerichts	-4394
▁beschäft	-4395
▁absolutely	-4396
▁heut	-4397
▁Beschl	-4398
▁Stelle	-4399
▁relating	-4400
▁beschlossen	-4401
pfen	-4402
trächt	-4403
handlung	-4404
▁fördern	-4405
LA	-4406
erc	-4407
ußt	-4408
hern	-4409
▁Vers	-4410
▁week	-4411
▁Polic	-4412
▁quickly	-4413
▁Freiheit	-4414
▁Tätigkeit	-4415
▁bestimmten	-4416
ple	-4417
▁17	-4418
auft	-4419
▁top	-4420
gesamt	-4421
leisten	-4422
theless	-4423
▁Grundsatz	-4424
▁gewährleisten	-4425
hung	-4426
▁avo	-4427
ellen	-4428
▁Kont	-4429
▁infl	-4430
▁talk	-4431
▁jedem	-4432
▁Regional	-4433
▁Protokoll	-4434
ait	-4435
▁Hö	-4436
▁refle	-4437
staaten	-4438
ana	-4439
▁pat	-4440
▁run	-4441
▁sex	-4442
▁else	-4443
▁Prozeß	-4444
▁prepar	-4445
zeichnet	-4446
▁confidence	-4447
ieht	-4448
▁Terr	-4449
iveness	-4450
▁nutzen	-4451
▁Komprom	-4452
▁proceed	-4453
▁beglückw	-4454
imb	-4455
meer	-4456
produ	-4457
▁Schl	-4458
▁hard	-4459
▁left	-4460
▁rein	-4461
teilen	-4462
▁langu	-4463
▁allein	-4464
▁persön	-4465
▁Beihilfen	-4466
▁Schwierigkeiten	-4467
▁wirtschaftliche	-4468
ktr	-4469
5-02	-4470
sätze	-4471
▁party	-4472
▁talking	-4473
hof	-4474
rifft	-4475
▁indic	-4476
▁einheit	-4477
▁Nationen	-4478
▁fisheries	-4479
▁gefordert	-4480
▁knowledge	-4481
▁schließlich	-4482
zehn	-4483
▁hear	-4484
▁received	-4485
▁40	-4486
▁purs	-4487
▁vere	-4488
handel	-4489
isiert	-4490
wendet	-4491
▁Further	-4492
▁Partner	-4493
▁Haushalt	-4494
▁Diskrimin	-4495
▁monitoring	-4496
yr	-4497
üt	-4498
uine	-4499
ourcen	-4500
▁reduce	-4501
▁Haltung	-4502
setzungen	-4503
▁Untersuch	-4504
▁precisely	-4505
EC	-4506
uly	-4507
zuführen	-4508
▁Forderung	-4509
▁Therefore	-4510
▁honourable	-4511
▁Mitgliedstaat	-4512
ux	-4513
tell	-4514
▁Kraft	-4515
▁danke	-4516
conomic	-4517
standen	-4518
▁discharge	-4519
mat	-4520
ume	-4521
▁Mor	-4522
chanis	-4523
▁light	-4524
▁behind	-4525
▁immedi	-4526
▁endlich	-4527
▁meisten	-4528
▁sectors	-4529
▁interess	-4530
▁Forschung	-4531
▁tradition	-4532
dict	-4533
▁irgend	-4534
▁fishing	-4535
▁pleased	-4536
▁verbunden	-4537
ief	-4538
ehen	-4539
▁zug	-4540
anced	-4541
▁höch	-4542
gehend	-4543
▁ought	-4544
▁lear	-4545
▁tell	-4546
▁Straß	-4547
mitglie	-4548
▁Dieses	-4549
▁budgetary	-4550
▁compromise	-4551
oin	-4552
iere	-4553
▁vol	-4554
nungs	-4555
reiten	-4556
▁Meine	-4557
▁Policy	-4558
▁begrüße	-4559
of	-4560
ande	-4561
erve	-4562
rachte	-4563
▁rapid	-4564
▁ständ	-4565
▁trotz	-4566
▁Summit	-4567
▁erfolg	-4568
▁applied	-4569
▁considered	-4570
▁consequences	-4571
▁specifically	-4572
.00	-4573
ured	-4574
würd	-4575
▁dut	-4576
/00):	-4577
▁list	-4578
Office	-4579
ighted	-4580
▁bevor	-4581
▁modern	-4582
▁crucial	-4583
▁Frankreich	-4584
▁ine	-4585
▁prü	-4586
▁reading	-4587
▁liberalisation	-4588
bet	-4589
iet	-4590
oph	-4591
▁Mär	-4592
istic	-4593
leben	-4594
▁abge	-4595
usions	-4596
▁Dinge	-4597
▁disas	-4598
▁gemäß	-4599
▁times	-4600
▁amount	-4601
esterday	-4602
▁Aufmerksam	-4603
orr	-4604
ösen	-4605
▁Nie	-4606
▁innov	-4607
▁unbed	-4608
▁einges	-4609
▁Annahme	-4610
▁criteria	-4611
▁restrict	-4612
▁zumindest	-4613
▁integration	-4614
▁vorliegenden	-4615
▁Aufmerksamkeit	-4616
will	-4617
▁Wachst	-4618
▁Aspekte	-4619
▁allgemeinen	-4620
oren	-4621
▁Koh	-4622
haben	-4623
▁cred	-4624
ühungen	-4625
▁Greece	-4626
▁observ	-4627
▁defence	-4628
▁Parteien	-4629
▁Rassismus	-4630
▁stability	-4631
hoben	-4632
ünsch	-4633
▁Spiel	-4634
▁getro	-4635
▁value	-4636
▁gesprochen	-4637
▁Koordinierung	-4638
▁Wel	-4639
imbab	-4640
denken	-4641
wirken	-4642
▁incor	-4643
▁called	-4644
industrie	-4645
▁everything	-4646
▁Integration	-4647
▁Menschenrechts	-4648
frei	-4649
rats	-4650
▁cho	-4651
quate	-4652
▁Grie	-4653
▁namely	-4654
▁legitim	-4655
▁verbessern	-4656
▁müß	-4657
▁abst	-4658
▁bear	-4659
rechend	-4660
▁though	-4661
▁effects	-4662
▁regards	-4663
▁sitting	-4664
▁durchaus	-4665
▁relevant	-4666
▁Konferenz	-4667
▁consideration	-4668
▁representatives	-4669
ibe	-4670
▁Volk	-4671
▁normal	-4672
▁erinnern	-4673
abak	-4674
▁BSE	-4675
▁Per	-4676
▁spez	-4677
formen	-4678
ensicht	-4679
▁Wissen	-4680
▁comments	-4681
▁getroffen	-4682
▁16	-4683
graph	-4684
▁brit	-4685
▁Ansatz	-4686
schließen	-4687
bedingungen	-4688
▁colleagues	-4689
▁verantwort	-4690
aden	-4691
▁Sec	-4692
stren	-4693
tember	-4694
▁Vielen	-4695
▁altern	-4696
▁community	-4697
▁investment	-4698
▁Verpflichtungen	-4699
ool	-4700
ison	-4701
ober	-4702
ished	-4703
▁Stat	-4704
▁krit	-4705
tragen	-4706
▁versuchen	-4707
▁Verwaltung	-4708
▁experience	-4709
▁198	-4710
▁camp	-4711
▁nimmt	-4712
▁traffic	-4713
▁zweiten	-4714
▁Griechen	-4715
▁Qualität	-4716
▁candidate	-4717
▁vollständ	-4718
▁Dienstleist	-4719
hem	-4720
▁ill	-4721
ending	-4722
kennen	-4723
▁family	-4724
▁justice	-4725
▁Hinsicht	-4726
zub	-4727
nern	-4728
▁try	-4729
▁Deut	-4730
▁unem	-4731
ategor	-4732
uellen	-4733
▁contr	-4734
▁Absatz	-4735
▁priorities	-4736
▁Beschäftigungs	-4737
▁Män	-4738
▁cut	-4739
statt	-4740
▁spee	-4741
achten	-4742
action	-4743
▁Minder	-4744
▁sorgen	-4745
▁spezie	-4746
ierenden	-4747
▁capital	-4748
▁Furthermore	-4749
▁leben	-4750
▁distrib	-4751
▁Eisenbahn	-4752
▁Environment	-4753
chs	-4754
uern	-4755
▁Les	-4756
wogen	-4757
ändert	-4758
▁verab	-4759
erweise	-4760
grenz	-4761
▁live	-4762
agraph	-4763
▁review	-4764
▁Absicht	-4765
▁gerecht	-4766
▁behandelt	-4767
▁bilateral	-4768
▁demokratischen	-4769
ilar	-4770
lies	-4771
ützen	-4772
▁When	-4773
▁verd	-4774
▁weder	-4775
▁Landes	-4776
▁bitten	-4777
zusetzen	-4778
▁Ausführ	-4779
▁Bildung	-4780
▁British	-4781
▁propose	-4782
▁pollution	-4783
▁assessment	-4784
▁finanziellen	-4785
laß	-4786
▁Tr	-4787
▁pen	-4788
ously	-4789
icking	-4790
▁using	-4791
▁purpose	-4792
▁connection	-4793
ding	-4794
▁Nos	-4795
atten	-4796
▁vergessen	-4797
▁wiederhol	-4798
▁directives	-4799
hren	-4800
aging	-4801
accept	-4802
▁plans	-4803
▁Fremden	-4804
▁möchten	-4805
Fra	-4806
pril	-4807
▁Sep	-4808
▁une	-4809
durch	-4810
▁More	-4811
▁carry	-4812
▁Zuständ	-4813
▁anderer	-4814
▁September	-4815
▁Zustimmung	-4816
▁akzeptieren	-4817
▁conclusions	-4818
▁Mediterranean	-4819
aat	-4820
emb	-4821
▁Kern	-4822
isieren	-4823
▁giving	-4824
▁obtain	-4825
▁overall	-4826
▁beitragen	-4827
▁Bemühungen	-4828
lauf	-4829
ption	-4830
▁Augen	-4831
▁hätten	-4832
▁jeweil	-4833
▁Aufgaben	-4834
▁französischen	-4835
ämt	-4836
▁van	-4837
▁woll	-4838
führen	-4839
gebung	-4840
▁forms	-4841
▁takes	-4842
istische	-4843
▁Grenzen	-4844
▁gesamte	-4845
▁reference	-4846
▁Amendments	-4847
▁geschaffen	-4848
▁24	-4849
mark	-4850
umst	-4851
ünst	-4852
▁Prä	-4853
▁Wes	-4854
▁old	-4855
icles	-4856
▁toba	-4857
chtung	-4858
▁April	-4859
▁führt	-4860
▁plann	-4861
ilities	-4862
▁Gewalt	-4863
▁around	-4864
▁Familien	-4865
▁unaccept	-4866
▁überhaupt	-4867
LAF	-4868
▁Ged	-4869
teile	-4870
▁death	-4871
▁Beteil	-4872
▁except	-4873
▁formul	-4874
▁tobacco	-4875
▁Beschluß	-4876
▁anything	-4877
▁entsprechenden	-4878
▁sus	-4879
▁fell	-4880
▁Initi	-4881
▁schem	-4882
ffected	-4883
▁Entwurf	-4884
▁insgesamt	-4885
▁improvement	-4886
äßt	-4887
uted	-4888
ister	-4889
▁huge	-4890
▁occas	-4891
▁Verwaltungs	-4892
rift	-4893
▁May	-4894
endit	-4895
▁ever	-4896
▁unge	-4897
imbabwe	-4898
▁bleibt	-4899
gelegten	-4900
▁Entlast	-4901
▁comment	-4902
▁solidar	-4903
▁intended	-4904
▁referred	-4905
▁provision	-4906
▁Gesundheits	-4907
EG	-4908
bs	-4909
osla	-4910
chter	-4911
ugosla	-4912
▁König	-4913
▁close	-4914
fahrens	-4915
▁practical	-4916
hän	-4917
ügen	-4918
▁fig	-4919
▁Belg	-4920
pected	-4921
▁evalu	-4922
▁prüfen	-4923
▁Monaten	-4924
▁consult	-4925
▁despite	-4926
▁affected	-4927
▁gleichen	-4928
▁discussed	-4929
tel	-4930
▁dest	-4931
▁export	-4932
▁urgent	-4933
orn	-4934
▁jen	-4935
ürger	-4936
▁Weit	-4937
▁took	-4938
handen	-4939
▁flexib	-4940
▁trying	-4941
▁dringend	-4942
▁recently	-4943
▁Vertrauen	-4944
▁wesentlichen	-4945
PE	-4946
ulf	-4947
ands	-4948
▁Gar	-4949
hrist	-4950
▁Nahr	-4951
▁World	-4952
▁guten	-4953
▁damage	-4954
▁Anstren	-4955
▁Question	-4956
▁feststellen	-4957
raten	-4958
▁rule	-4959
▁diesbe	-4960
▁accordance	-4961
HO	-4962
seit	-4963
äter	-4964
▁face	-4965
▁enable	-4966
▁labour	-4967
▁central	-4968
losigkeit	-4969
▁darstellt	-4970
▁unacceptable	-4971
ma	-4972
bank	-4973
gere	-4974
▁Wahr	-4975
▁model	-4976
▁Völker	-4977
▁suppor	-4978
▁gehören	-4979
▁illegal	-4980
ciliation	-4981
▁substant	-4982
ikanischen	-4983
▁potential	-4984
▁considerable	-4985
xis	-4986
ucht	-4987
rachen	-4988
▁along	-4989
▁rural	-4990
▁Versch	-4991
▁condem	-4992
▁intens	-4993
▁Handels	-4994
velopment	-4995
äst	-4996
▁Ins	-4997
▁Tun	-4998
verty	-4999
▁Schwed	-5000
▁poverty	-5001
▁technology	-5002
▁verhindern	-5003
▁gegenwärtig	-5004
OM	-5005
1999)	-5006
itors	-5007
▁uner	-5008
hesion	-5009
laufen	-5010
zeugen	-5011
▁becom	-5012
▁equal	-5013
▁zeigt	-5014
▁kulture	-5015
▁pension	-5016
▁Transport	-5017
▁unbedingt	-5018
▁Haupt	-5019
teilung	-5020
▁investig	-5021
▁direction	-5022
▁diejenigen	-5023
▁Strukturfonds	-5024
▁administrative	-5025
▁Do	-5026
▁Of	-5027
iten	-5028
teilt	-5029
▁Beob	-5030
▁OLAF	-5031
▁accep	-5032
▁heard	-5033
▁Balkan	-5034
▁Fällen	-5035
▁Jugend	-5036
▁Natürlich	-5037
▁efficient	-5038
▁increased	-5039
▁".	-5040
▁Ide	-5041
▁mis	-5042
▁port	-5043
▁Tabak	-5044
▁expla	-5045
▁scope	-5046
▁hinter	-5047
▁Regelungen	-5048
▁discussions	-5049
▁entschieden	-5050
▁Ausführungen	-5051
Os	-5052
▁hä	-5053
uter	-5054
▁MEP	-5055
elten	-5056
▁days	-5057
idents	-5058
▁coher	-5059
▁effiz	-5060
▁risks	-5061
▁Lesung	-5062
▁creating	-5063
▁ausgezeichne	-5064
▁Rom	-5065
▁rate	-5066
▁Woche	-5067
▁vital	-5068
▁thanks	-5069
▁Nahrungs	-5070
▁wichtigsten	-5071
ec	-5072
oden	-5073
utter	-5074
▁dipl	-5075
▁sämt	-5076
▁Lassen	-5077
▁school	-5078
▁Änderungen	-5079
▁hingewiesen	-5080
30	-5081
works	-5082
▁Stud	-5083
▁staff	-5084
▁Meiner	-5085
▁Kollege	-5086
▁offensicht	-5087
▁Finanzierung	-5088
öst	-5089
anze	-5090
zusch	-5091
ärkung	-5092
▁Bezug	-5093
▁bewußt	-5094
▁fellow	-5095
▁regret	-5096
▁Anstrengungen	-5097
▁opportunities	-5098
eind	-5099
teen	-5100
▁fal	-5101
▁Inde	-5102
▁schw	-5103
▁tack	-5104
uctural	-5105
▁almost	-5106
▁Justice	-5107
▁kleinen	-5108
▁Projekte	-5109
▁elections	-5110
▁conclusion	-5111
In	-5112
▁oil	-5113
etary	-5114
▁away	-5115
▁powers	-5116
▁Vermitt	-5117
▁finally	-5118
▁konkrete	-5119
▁konkreten	-5120
▁yesterday	-5121
▁instruments	-5122
wise	-5123
▁Dez	-5124
▁Nov	-5125
aktor	-5126
iance	-5127
▁Fehl	-5128
▁Linie	-5129
▁threat	-5130
▁circumst	-5131
▁wichtiger	-5132
▁businesses	-5133
▁durchgeführt	-5134
iko	-5135
lare	-5136
▁Nun	-5137
änden	-5138
▁Dazu	-5139
▁Plan	-5140
▁alloc	-5141
▁price	-5142
▁Schiff	-5143
▁forces	-5144
▁funktion	-5145
ets	-5146
zieht	-5147
▁Bild	-5148
▁prot	-5149
▁Grenz	-5150
▁Werte	-5151
▁exerc	-5152
▁bodies	-5153
▁mensch	-5154
▁widers	-5155
▁enthält	-5156
▁Konflikt	-5157
▁nachhalt	-5158
ausschusses	-5159
▁six	-5160
▁fehl	-5161
▁läßt	-5162
▁ihres	-5163
▁police	-5164
▁racism	-5165
▁status	-5166
▁ziehen	-5167
▁reached	-5168
▁sanctions	-5169
eg	-5170
▁1.	-5171
arily	-5172
▁Wert	-5173
▁erhö	-5174
▁mass	-5175
erungs	-5176
▁brief	-5177
▁Nations	-5178
▁created	-5179
▁incorpor	-5180
▁pressure	-5181
üro	-5182
▁Ag	-5183
(1999)	-5184
igital	-5185
▁Armut	-5186
▁detail	-5187
▁electr	-5188
abkommen	-5189
▁brought	-5190
▁reality	-5191
▁refugees	-5192
▁bezüglich	-5193
▁Ausbildung	-5194
▁Prioritäten	-5195
▁establishing	-5196
Be	-5197
▁gab	-5198
▁across	-5199
▁undertak	-5200
▁Königreich	-5201
▁parliamentary	-5202
rug	-5203
▁Ress	-5204
eschrän	-5205
▁coming	-5206
▁scheint	-5207
▁demonstr	-5208
▁infrastr	-5209
▁Vergangen	-5210
▁intervention	-5211
▁circumstances	-5212
bru	-5213
ging	-5214
yond	-5215
kraft	-5216
▁gere	-5217
▁goes	-5218
▁prob	-5219
▁Gesamt	-5220
▁commer	-5221
▁design	-5222
▁stärker	-5223
▁beschrän	-5224
▁Structural	-5225
▁Verwendung	-5226
▁ce	-5227
▁lot	-5228
▁ord	-5229
▁emer	-5230
▁separ	-5231
sicherheit	-5232
▁seriously	-5233
rach	-5234
▁bur	-5235
▁lok	-5236
▁tim	-5237
ublik	-5238
rieben	-5239
▁Febru	-5240
▁Ihrer	-5241
issions	-5242
▁Kommun	-5243
▁myself	-5244
Fraktion	-5245
▁Einsatz	-5246
▁outside	-5247
▁Aufnahme	-5248
▁effectively	-5249
gn	-5250
▁sk	-5251
aign	-5252
pliz	-5253
▁Rats	-5254
▁Zivil	-5255
▁jedes	-5256
▁medium	-5257
▁reject	-5258
▁vorsch	-5259
▁dadurch	-5260
▁November	-5261
folgerungen	-5262
▁possibility	-5263
▁mess	-5264
▁Druck	-5265
▁freue	-5266
▁erneut	-5267
▁erwarten	-5268
▁Directive	-5269
▁Vergangenheit	-5270
▁Dan	-5271
▁rene	-5272
▁avoid	-5273
▁produc	-5274
▁Bereiche	-5275
▁sustainable	-5276
gelt	-5277
zeugt	-5278
▁1996	-5279
▁sort	-5280
▁benöt	-5281
▁Harmon	-5282
▁eingere	-5283
▁campaign	-5284
▁creation	-5285
▁Mittelmeer	-5286
▁entwickeln	-5287
▁scientific	-5288
▁vorgeschlagenen	-5289
zel	-5290
▁Sc	-5291
▁age	-5292
▁Nord	-5293
▁weak	-5294
▁capac	-5295
▁cross	-5296
▁staat	-5297
▁Sonder	-5298
▁besten	-5299
▁Achtung	-5300
▁limited	-5301
▁Berichte	-5302
▁Fraktionen	-5303
▁industrial	-5304
opol	-5305
▁sea	-5306
▁sum	-5307
ließen	-5308
pflich	-5309
▁caused	-5310
ological	-5311
▁culture	-5312
▁Sanktionen	-5313
EN	-5314
wh	-5315
▁dev	-5316
▁tar	-5317
▁ten	-5318
▁spir	-5319
▁unan	-5320
▁Staat	-5321
▁Gipfel	-5322
▁ergreifen	-5323
▁festgelegt	-5324
llos	-5325
▁Gene	-5326
▁effe	-5327
▁exch	-5328
▁views	-5329
▁Sweden	-5330
▁combat	-5331
▁Stellen	-5332
▁natural	-5333
ktivitäten	-5334
▁committed	-5335
▁zustimmen	-5336
▁additional	-5337
▁Präsidenten	-5338
▁independent	-5339
▁trafficking	-5340
▁El	-5341
▁PPE	-5342
orgung	-5343
wenden	-5344
▁goods	-5345
▁useful	-5346
▁Projekt	-5347
▁authority	-5348
▁structural	-5349
lad	-5350
▁Kar	-5351
▁Süd	-5352
inden	-5353
▁grat	-5354
▁Funds	-5355
▁enorm	-5356
▁gewor	-5357
▁stets	-5358
unktion	-5359
derungen	-5360
▁National	-5361
▁Technolog	-5362
▁verurteil	-5363
amm	-5364
▁",	-5365
gült	-5366
räft	-5367
auern	-5368
nungen	-5369
▁exact	-5370
▁neuer	-5371
▁beyond	-5372
▁Central	-5373
▁außerdem	-5374
▁personal	-5375
▁notwendigen	-5376
FR	-5377
zul	-5378
olid	-5379
itude	-5380
räfte	-5381
bericht	-5382
ression	-5383
▁treffen	-5384
▁Bewertung	-5385
▁vorhanden	-5386
▁discussing	-5387
▁infrastruct	-5388
▁difficulties	-5389
hnung	-5390
wirte	-5391
▁date	-5392
▁verk	-5393
▁People	-5394
▁Unsere	-5395
▁living	-5396
▁Portugal	-5397
▁vernünft	-5398
▁bestehenden	-5399
sum	-5400
urd	-5401
▁Ad	-5402
ends	-5403
where	-5404
▁Maße	-5405
▁tour	-5406
▁Krieg	-5407
▁einzu	-5408
▁hoffen	-5409
▁instead	-5410
▁morning	-5411
▁totally	-5412
sibilities	-5413
▁dangerous	-5414
EA	-5415
üg	-5416
omb	-5417
abel	-5418
▁Bur	-5419
▁Verf	-5420
▁stra	-5421
▁Anerk	-5422
▁advant	-5423
▁gering	-5424
▁konnte	-5425
▁einzige	-5426
▁receive	-5427
entscheid	-5428
▁directly	-5429
▁heutigen	-5430
▁implementing	-5431
▁unemployment	-5432
▁Arbeitsplätze	-5433
▁bi	-5434
ingd	-5435
otes	-5436
utzt	-5437
▁bem	-5438
amber	-5439
▁seek	-5440
▁sour	-5441
▁Swedish	-5442
▁condemn	-5443
▁militär	-5444
▁expendit	-5445
▁speaking	-5446
▁organised	-5447
/0	-5448
jahr	-5449
barkeit	-5450
▁Regeln	-5451
European	-5452
▁betonen	-5453
▁einiger	-5454
▁Gebieten	-5455
frastruktur	-5456
möglichkeit	-5457
▁entsprechend	-5458
zö	-5459
dere	-5460
fect	-5461
kung	-5462
▁Prü	-5463
▁met	-5464
▁welt	-5465
▁Falle	-5466
▁speed	-5467
chnungs	-5468
ibility	-5469
▁extens	-5470
▁Balkans	-5471
▁setting	-5472
gesundheit	-5473
▁möglichst	-5474
▁Allerdings	-5475
▁expenditure	-5476
▁beglückwünschen	-5477
The	-5478
bung	-5479
▁ade	-5480
▁veh	-5481
▁Netz	-5482
▁früher	-5483
▁terror	-5484
reichend	-5485
▁pointed	-5486
▁Development	-5487
▁developments	-5488
▁Ass	-5489
▁New	-5490
▁somit	-5491
▁associ	-5492
▁return	-5493
programm	-5494
▁konzentr	-5495
▁accession	-5496
▁developed	-5497
▁Lebensmittel	-5498
ourn	-5499
werk	-5500
▁Now	-5501
icien	-5502
▁reag	-5503
▁sinn	-5504
ünsche	-5505
▁fraud	-5506
▁bestät	-5507
▁ändern	-5508
▁minimum	-5509
strumente	-5510
▁Leitlinien	-5511
derl	-5512
reff	-5513
▁Lux	-5514
▁quot	-5515
ussels	-5516
▁Zeitraum	-5517
▁contrary	-5518
▁requires	-5519
ush	-5520
▁Ort	-5521
▁jur	-5522
odell	-5523
glicht	-5524
▁sieht	-5525
▁similar	-5526
▁verpflich	-5527
stitutional	-5528
▁ermöglicht	-5529
▁Investitionen	-5530
▁ä	-5531
Das	-5532
cke	-5533
▁dom	-5534
▁half	-5535
▁ways	-5536
orgnis	-5537
▁sound	-5538
schlossen	-5539
▁verstehen	-5540
▁erforderlichen	-5541
äs	-5542
acio	-5543
▁Dro	-5544
▁Rev	-5545
anzen	-5546
▁MEDA	-5547
unkten	-5548
▁Justiz	-5549
▁explan	-5550
▁Palacio	-5551
▁applies	-5552
▁measure	-5553
▁umgesetzt	-5554
▁Fundamental	-5555
),	-5556
amb	-5557
uni	-5558
iell	-5559
uber	-5560
▁div	-5561
▁Eind	-5562
▁curren	-5563
▁produce	-5564
▁activity	-5565
▁argument	-5566
▁Kriterien	-5567
▁genannten	-5568
▁paragraph	-5569
▁angemessen	-5570
▁solidarity	-5571
▁immigration	-5572
▁organisation	-5573
IP	-5574
▁II	-5575
ired	-5576
▁ign	-5577
▁paid	-5578
▁Third	-5579
▁condu	-5580
achtung	-5581
bezogen	-5582
▁Darüber	-5583
▁Verhält	-5584
▁recognise	-5585
-2	-5586
▁Mo	-5587
onnen	-5588
▁body	-5589
▁home	-5590
system	-5591
▁Sorge	-5592
▁grant	-5593
igungen	-5594
▁Praxis	-5595
▁firstly	-5596
▁zentral	-5597
▁material	-5598
▁encourage	-5599
▁Anerkennung	-5600
▁resolutions	-5601
▁participation	-5602
oping	-5603
▁Priv	-5604
▁Preis	-5605
▁leave	-5606
▁sogen	-5607
erungen	-5608
▁Gesprä	-5609
▁violence	-5610
▁Wiederauf	-5611
▁Empfehlung	-5612
▁offensichtlich	-5613
anted	-5614
hörde	-5615
▁anzu	-5616
▁prim	-5617
▁anerk	-5618
▁events	-5619
▁stated	-5620
▁unanim	-5621
▁Germany	-5622
▁allowed	-5623
▁confirm	-5624
▁Brussels	-5625
▁Veränder	-5626
▁properly	-5627
▁documents	-5628
▁administration	-5629
10	-5630
ctive	-5631
ounts	-5632
▁shown	-5633
entwick	-5634
▁exchange	-5635
▁nochmals	-5636
▁challenge	-5637
met	-5638
▁jün	-5639
mäßig	-5640
leisch	-5641
▁Plenum	-5642
▁Mitteln	-5643
▁Überwach	-5644
▁intention	-5645
▁supported	-5646
unternehmen	-5647
▁institutional	-5648
tes	-5649
lier	-5650
▁Bef	-5651
▁log	-5652
ktron	-5653
▁sage	-5654
ilität	-5655
rehens	-5656
▁South	-5657
▁schle	-5658
▁annual	-5659
ulierung	-5660
▁bessere	-5661
▁ensuring	-5662
▁networks	-5663
▁probably	-5664
▁reduction	-5665
opp	-5666
äus	-5667
atch	-5668
▁Last	-5669
▁side	-5670
▁thus	-5671
pective	-5672
▁prices	-5673
▁verurs	-5674
▁Brüssel	-5675
▁dealing	-5676
▁capacity	-5677
▁erschein	-5678
▁geworden	-5679
▁partnership	-5680
▁humanitarian	-5681
St	-5682
ox	-5683
hab	-5684
ots	-5685
rank	-5686
ietet	-5687
indet	-5688
ffnung	-5689
rahmen	-5690
undert	-5691
▁check	-5692
frieden	-5693
okraten	-5694
rittens	-5695
▁author	-5696
▁highly	-5697
▁künftig	-5698
▁systemat	-5699
▁Katastrop	-5700
▁beginning	-5701
▁treatment	-5702
▁verpflichtet	-5703
).	-5704
▁max	-5705
ufact	-5706
ureau	-5707
▁bill	-5708
▁Unser	-5709
gruppen	-5710
▁schwed	-5711
▁Solidar	-5712
▁Zentral	-5713
▁counter	-5714
▁respond	-5715
▁Rechnungs	-5716
▁typ	-5717
ktors	-5718
▁pack	-5719
erkunft	-5720
▁declar	-5721
▁Verträge	-5722
▁contract	-5723
▁Gegenteil	-5724
▁agriculture	-5725
arch	-5726
▁Mio	-5727
▁sym	-5728
letzt	-5729
ought	-5730
etimes	-5731
▁Luxem	-5732
▁impos	-5733
▁Handel	-5734
▁keines	-5735
▁Schweden	-5736
▁bekommen	-5737
▁weltweit	-5738
▁aufmerksam	-5739
▁darstellen	-5740
▁Entscheidungs	-5741
blemen	-5742
vergen	-5743
bringen	-5744
▁kontro	-5745
beziehung	-5746
▁accepted	-5747
▁Initiativen	-5748
▁Verteidigungs	-5749
▁entsprechende	-5750
ibet	-5751
strö	-5752
▁empf	-5753
achtet	-5754
fordern	-5755
schiede	-5756
▁erwähnt	-5757
kontrolle	-5758
▁manufact	-5759
▁zunehmen	-5760
▁submitted	-5761
ex	-5762
atik	-5763
haus	-5764
▁Iraq	-5765
▁herr	-5766
ämpfen	-5767
▁alone	-5768
▁ganze	-5769
▁Währung	-5770
▁Aktionen	-5771
▁speakers	-5772
▁geschehen	-5773
▁obviously	-5774
▁Organisationen	-5775
▁Et	-5776
imin	-5777
ützt	-5778
▁Von	-5779
▁Finn	-5780
▁gern	-5781
▁Since	-5782
▁liebe	-5783
▁occur	-5784
schreit	-5785
▁Budget	-5786
▁looking	-5787
▁Politiken	-5788
▁geleistet	-5789
▁Entlastung	-5790
▁unfortunately	-5791
▁Harmonisierung	-5792
▁22	-5793
läss	-5794
anner	-5795
▁impl	-5796
▁urge	-5797
sektor	-5798
▁explo	-5799
▁learn	-5800
▁gestern	-5801
andidaten	-5802
▁Friedens	-5803
▁gekommen	-5804
▁standard	-5805
▁Ministers	-5806
▁Ressourcen	-5807
▁Diskriminierung	-5808
wesen	-5809
▁ship	-5810
zesses	-5811
▁anwes	-5812
▁dealt	-5813
▁warum	-5814
▁safegu	-5815
▁Deutsch	-5816
▁Schließ	-5817
▁univers	-5818
▁negative	-5819
▁Ausschuss	-5820
▁betrachte	-5821
▁sicherlich	-5822
▁internationale	-5823
aret	-5824
▁frei	-5825
▁tele	-5826
esehen	-5827
▁Anfang	-5828
▁interv	-5829
▁thought	-5830
▁operation	-5831
▁eingesetzt	-5832
▁öffentliche	-5833
ehm	-5834
isp	-5835
uth	-5836
elon	-5837
udge	-5838
▁acqu	-5839
▁sent	-5840
gesetz	-5841
▁Gruppe	-5842
▁Patent	-5843
▁speech	-5844
▁voraus	-5845
icherung	-5846
▁positiv	-5847
▁spielen	-5848
▁producers	-5849
▁Griechenland	-5850
▁Vereinbarung	-5851
▁festgestellt	-5852
aly	-5853
5-03	-5854
▁Spe	-5855
▁big	-5856
▁wid	-5857
imate	-5858
tedly	-5859
▁Post	-5860
▁beru	-5861
▁jüng	-5862
▁Paper	-5863
asbourg	-5864
▁Betrie	-5865
▁Einzel	-5866
▁remark	-5867
▁remember	-5868
▁Vorbereit	-5869
▁langfrist	-5870
▁Einhaltung	-5871
▁commitments	-5872
▁transparent	-5873
acy	-5874
▁Bl	-5875
uded	-5876
zeuge	-5877
▁MEPs	-5878
▁self	-5879
ampere	-5880
▁Straf	-5881
▁hohen	-5882
▁pursu	-5883
▁überw	-5884
▁Medien	-5885
▁attempt	-5886
▁gewesen	-5887
grundlage	-5888
▁außerord	-5889
▁improving	-5890
▁unternehmen	-5891
MU	-5892
▁Ph	-5893
falt	-5894
vors	-5895
▁name	-5896
ompliz	-5897
▁häufig	-5898
▁strict	-5899
▁December	-5900
▁versucht	-5901
▁Übergang	-5902
▁überzeugt	-5903
▁Einbeziehung	-5904
▁portugiesischen	-5905
▁Zw	-5906
▁wr	-5907
pret	-5908
▁art	-5909
▁ähn	-5910
sprün	-5911
unsch	-5912
zeigt	-5913
making	-5914
erences	-5915
reement	-5916
legungen	-5917
▁Gebiete	-5918
▁Tampere	-5919
▁digital	-5920
▁größere	-5921
▁analysis	-5922
▁elektron	-5923
▁verehrte	-5924
▁Kompromiß	-5925
▁highlight	-5926
▁zufrieden	-5927
▁Delegation	-5928
▁übernehmen	-5929
▁Forderungen	-5930
ury	-5931
äne	-5932
▁et	-5933
mand	-5934
▁neu	-5935
▁ECHO	-5936
▁Meer	-5937
indern	-5938
▁quant	-5939
▁Inhalt	-5940
▁concept	-5941
▁dagegen	-5942
IF	-5943
tei	-5944
äher	-5945
▁Tour	-5946
▁wait	-5947
▁ersch	-5948
ifellos	-5949
▁Indeed	-5950
▁Krisen	-5951
▁wanted	-5952
▁Nutzung	-5953
▁reforms	-5954
▁providing	-5955
▁Forschungs	-5956
▁alternative	-5957
bild	-5958
▁Ang	-5959
iveau	-5960
▁fear	-5961
▁gain	-5962
bürger	-5963
igaret	-5964
▁radio	-5965
▁reply	-5966
▁wrong	-5967
▁ground	-5968
▁billion	-5969
▁unmittel	-5970
▁zahlreiche	-5971
▁diskutieren	-5972
isc	-5973
▁23	-5974
iter	-5975
äfen	-5976
itial	-5977
ommer	-5978
▁Fahr	-5979
▁Pers	-5980
▁anti	-5981
▁bemü	-5982
▁gesehen	-5983
▁message	-5984
▁rightly	-5985
▁entgegen	-5986
▁einsetzen	-5987
▁Erfahrungen	-5988
CP	-5989
lo	-5990
prüft	-5991
ritte	-5992
▁Tier	-5993
▁eher	-5994
wortet	-5995
▁Heute	-5996
▁descr	-5997
▁Grunde	-5998
▁Kritik	-5999
▁Widers	-6000
▁ganzen	-6001
▁Fortsch	-6002
▁complex	-6003
▁function	-6004
▁verfügen	-6005
dra	-6006
wel	-6007
▁80	-6008
ernen	-6009
gerung	-6010
ierter	-6011
▁Einfl	-6012
▁beein	-6013
▁Agenda	-6014
▁Aspekt	-6015
▁Public	-6016
▁später	-6017
▁Dezember	-6018
▁Herkunft	-6019
▁Republic	-6020
▁cohesion	-6021
▁geograph	-6022
▁effizient	-6023
▁verfolgen	-6024
▁Strasbourg	-6025
▁ländlichen	-6026
KP	-6027
rägt	-6028
▁Ire	-6029
▁situ	-6030
▁verm	-6031
▁drawn	-6032
▁known	-6033
▁renew	-6034
ensions	-6035
▁erklärt	-6036
zeichnung	-6037
▁successful	-6038
▁öffentlich	-6039
Par	-6040
ipp	-6041
min	-6042
opo	-6043
▁28	-6044
▁Zur	-6045
▁Tele	-6046
▁code	-6047
▁dead	-6048
▁jene	-6049
▁rise	-6050
dienst	-6051
mittag	-6052
▁arran	-6053
▁media	-6054
▁Berlin	-6055
▁Wahlen	-6056
▁wonder	-6057
▁gesetzt	-6058
▁Economic	-6059
ays	-6060
▁60	-6061
▁100	-6062
▁Aud	-6063
weist	-6064
▁2002	-6065
▁near	-6066
fallen	-6067
▁Never	-6068
▁Afrika	-6069
▁manner	-6070
▁Ireland	-6071
▁Zweifel	-6072
▁thinking	-6073
▁delegation	-6074
▁Verpflichtung	-6075
50	-6076
AS	-6077
läß	-6078
▁mil	-6079
▁nah	-6080
▁red	-6081
gemäß	-6082
ology	-6083
▁East	-6084
▁Stad	-6085
ording	-6086
▁Folge	-6087
▁raise	-6088
auftrag	-6089
▁Subsid	-6090
▁bringt	-6091
▁fragen	-6092
▁earlier	-6093
▁element	-6094
▁exactly	-6095
▁erfüllen	-6096
richtungen	-6097
▁Solidarität	-6098
▁appropriations	-6099
ffiz	-6100
ginn	-6101
okol	-6102
vere	-6103
▁Ist	-6104
schuld	-6105
ustaus	-6106
▁later	-6107
▁active	-6108
▁leicht	-6109
▁endgült	-6110
▁produced	-6111
▁sometimes	-6112
fu	-6113
ense	-6114
kish	-6115
▁Miß	-6116
▁duty	-6117
▁firm	-6118
▁extra	-6119
▁lives	-6120
gewicht	-6121
istence	-6122
▁Wochen	-6123
▁mainly	-6124
▁merely	-6125
▁Straßen	-6126
▁ursprün	-6127
▁Abschluß	-6128
▁Austrian	-6129
▁solutions	-6130
änz	-6131
feld	-6132
iedr	-6133
trie	-6134
used	-6135
uelle	-6136
▁alco	-6137
▁bald	-6138
▁fulf	-6139
▁zehn	-6140
▁worth	-6141
▁repeat	-6142
▁demands	-6143
▁Beitritt	-6144
▁Behandlung	-6145
▁contribute	-6146
▁Aktivitäten	-6147
unt	-6148
▁IN	-6149
auen	-6150
stra	-6151
▁Acc	-6152
ience	-6153
itzen	-6154
liegt	-6155
setzt	-6156
▁Mont	-6157
iarity	-6158
undsätz	-6159
▁excess	-6160
▁spirit	-6161
▁vorher	-6162
gestimmt	-6163
▁initial	-6164
▁Treaties	-6165
▁commercial	-6166
DER	-6167
rec	-6168
val	-6169
▁NG	-6170
▁br	-6171
▁lik	-6172
▁tem	-6173
▁Alle	-6174
suchen	-6175
▁front	-6176
ocolate	-6177
▁Polize	-6178
▁zeigen	-6179
▁Begriff	-6180
▁borders	-6181
▁erzielt	-6182
▁konnten	-6183
▁currency	-6184
▁vielmehr	-6185
▁stattfinden	-6186
▁Übereinkommen	-6187
af	-6188
vis	-6189
eben	-6190
lägt	-6191
ones	-6192
anten	-6193
▁Rules	-6194
▁übrig	-6195
▁cooper	-6196
▁simple	-6197
zeichnen	-6198
▁kompliz	-6199
▁kontroll	-6200
▁Verhalten	-6201
▁colleague	-6202
▁officials	-6203
▁regionalen	-6204
▁substantial	-6205
▁Zuständigkeit	-6206
oses	-6207
▁bar	-6208
inced	-6209
coming	-6210
ederal	-6211
jected	-6212
▁Worte	-6213
▁sonst	-6214
▁study	-6215
▁Seiten	-6216
▁Solana	-6217
▁Zusatz	-6218
▁direkt	-6219
▁ausführ	-6220
▁Eindruck	-6221
▁ergriffen	-6222
▁grundsätz	-6223
▁schwierig	-6224
▁Grundsätze	-6225
▁Verbindung	-6226
▁prevention	-6227
body	-6228
▁ACP	-6229
EADER	-6230
annte	-6231
cknow	-6232
▁join	-6233
ranted	-6234
▁Hinter	-6235
▁closely	-6236
▁Vereinten	-6237
▁ausgewogen	-6238
▁Nevertheless	-6239
▁Nahrungsmittel	-6240
▁Volksgesundheit	-6241
iled	-6242
zust	-6243
▁AKP	-6244
▁mut	-6245
konom	-6246
verse	-6247
▁Beam	-6248
▁relig	-6249
absicht	-6250
▁divers	-6251
▁grounds	-6252
▁mehrere	-6253
▁Ausgaben	-6254
▁construct	-6255
zwe	-6256
▁Nur	-6257
ophob	-6258
werte	-6259
▁dank	-6260
▁hour	-6261
▁jede	-6262
ortion	-6263
reffend	-6264
▁Betrug	-6265
▁LEADER	-6266
▁reflect	-6267
▁Funktion	-6268
▁Straßburg	-6269
▁involving	-6270
▁definition	-6271
▁Schließlich	-6272
▁betroffenen	-6273
▁­	-6274
▁La	-6275
maßen	-6276
▁parts	-6277
▁wären	-6278
▁acknow	-6279
▁Kontroll	-6280
▁befassen	-6281
▁befinden	-6282
▁Priorität	-6283
▁Erklärungen	-6284
cyc	-6285
ival	-6286
▁zul	-6287
feind	-6288
▁June	-6289
▁Verl	-6290
▁mitt	-6291
▁Tibet	-6292
itation	-6293
▁Global	-6294
▁bedarf	-6295
etheless	-6296
▁Turkish	-6297
▁leaders	-6298
▁withdra	-6299
▁Moreover	-6300
▁diplomat	-6301
▁happened	-6302
▁convinced	-6303
riminalität	-6304
▁entspricht	-6305
▁Berücksicht	-6306
apt	-6307
ari	-6308
uls	-6309
oted	-6310
▁INT	-6311
▁Sto	-6312
▁bad	-6313
▁entit	-6314
▁genug	-6315
▁forget	-6316
▁wishes	-6317
▁influen	-6318
▁perfect	-6319
▁remains	-6320
forderung	-6321
▁constant	-6322
verstanden	-6323
▁behandeln	-6324
▁financing	-6325
▁jeweiligen	-6326
▁Einrichtung	-6327
ungsverfahren	-6328
▁französische	-6329
DE	-6330
ape	-6331
sec	-6332
ört	-6333
▁Mai	-6334
hören	-6335
kohol	-6336
reign	-6337
▁Juni	-6338
schätz	-6339
▁Macht	-6340
▁votes	-6341
▁anders	-6342
abelling	-6343
▁Personal	-6344
▁beginnen	-6345
▁competen	-6346
Parliament	-6347
llschaften	-6348
▁Festlegung	-6349
▁derzeitigen	-6350
▁finanzielle	-6351
GC	-6352
▁Bos	-6353
▁arm	-6354
rated	-6355
▁Ihren	-6356
▁auszu	-6357
▁chair	-6358
▁repla	-6359
▁Ereign	-6360
▁attack	-6361
▁decide	-6362
▁gleiche	-6363
▁versich	-6364
▁Subsidiar	-6365
▁kommenden	-6366
▁ausreichend	-6367
▁relationship	-6368
▁subsidiarity	-6369
▁verschiedene	-6370
organisationen	-6371
äum	-6372
▁IGC	-6373
▁Höhe	-6374
▁jähr	-6375
▁After	-6376
▁Defin	-6377
▁apprec	-6378
▁former	-6379
▁verste	-6380
mitglied	-6381
▁genuine	-6382
▁American	-6383
▁erfolgen	-6384
▁schützen	-6385
▁recommendation	-6386
ef	-6387
ürk	-6388
▁37	-6389
ball	-6390
ized	-6391
ovis	-6392
wing	-6393
▁Hil	-6394
tritt	-6395
▁Gest	-6396
▁Jahrh	-6397
enophob	-6398
ikation	-6399
▁actual	-6400
▁compla	-6401
▁depend	-6402
▁helfen	-6403
▁covered	-6404
▁Kollegin	-6405
ERR	-6406
▁Rea	-6407
ERREG	-6408
▁Rand	-6409
▁whom	-6410
itious	-6411
ournal	-6412
▁early	-6413
▁gives	-6414
prüfung	-6415
▁Beginn	-6416
▁burden	-6417
▁summit	-6418
▁granted	-6419
▁disaster	-6420
▁Democrats	-6421
▁introduce	-6422
▁Stabilität	-6423
▁Beteiligung	-6424
▁Instrumente	-6425
mar	-6426
▁kl	-6427
▁fri	-6428
losen	-6429
▁Mark	-6430
▁bank	-6431
stoffe	-6432
udgets	-6433
▁geäuß	-6434
entwurf	-6435
▁prefer	-6436
stimmung	-6437
zusammen	-6438
▁Stärkung	-6439
▁Wachstum	-6440
▁attitude	-6441
▁gefunden	-6442
▁keinerlei	-6443
ynam	-6444
öder	-6445
▁usw	-6446
▁harm	-6447
▁Anges	-6448
▁Legal	-6449
▁verme	-6450
Program	-6451
▁Terror	-6452
▁Umfang	-6453
▁appear	-6454
▁gratul	-6455
achtungs	-6456
▁INTERREG	-6457
▁adoption	-6458
▁contains	-6459
▁language	-6460
▁acceptable	-6461
▁introduced	-6462
▁Deutschland	-6463
▁gegenwärtigen	-6464
üter	-6465
▁Can	-6466
▁gek	-6467
▁tät	-6468
allel	-6469
aufen	-6470
▁Sach	-6471
▁Some	-6472
▁schl	-6473
ifying	-6474
▁lösen	-6475
▁sechs	-6476
▁Christ	-6477
anischen	-6478
▁Kapital	-6479
▁willing	-6480
▁provides	-6481
▁Problemen	-6482
▁besondere	-6483
politischen	-6484
▁conference	-6485
▁recognised	-6486
▁situations	-6487
möglichkeiten	-6488
▁Gleichzeitig	-6489
▁increasingly	-6490
▁möglicherweise	-6491
ave	-6492
▁Niel	-6493
▁Schw	-6494
▁audi	-6495
lament	-6496
▁forth	-6497
▁klein	-6498
▁Faktor	-6499
▁reserv	-6500
▁calling	-6501
▁conclude	-6502
▁exercise	-6503
▁Einwander	-6504
▁politisch	-6505
▁britischen	-6506
▁unternommen	-6507
▁establishment	-6508
to	-6509
iop	-6510
angs	-6511
icit	-6512
äden	-6513
ailed	-6514
ancen	-6515
linge	-6516
urely	-6517
▁Rent	-6518
erzeug	-6519
punkte	-6520
▁noise	-6521
▁Proced	-6522
▁profess	-6523
▁audiovis	-6524
sk	-6525
äss	-6526
▁Ev	-6527
▁Bot	-6528
▁ehr	-6529
asten	-6530
attle	-6531
halte	-6532
▁Umst	-6533
▁says	-6534
▁Ander	-6535
vorsitz	-6536
▁einzus	-6537
▁unable	-6538
▁wollte	-6539
grenzung	-6540
▁Chamber	-6541
▁Gruppen	-6542
▁Milliar	-6543
▁consist	-6544
▁Verständ	-6545
▁Vergleich	-6546
▁beteiligt	-6547
▁gestalten	-6548
AR	-6549
zut	-6550
▁UK	-6551
▁Pet	-6552
▁Erwä	-6553
▁abzu	-6554
▁bein	-6555
urance	-6556
▁thous	-6557
iciency	-6558
ierende	-6559
▁Hauses	-6560
▁überein	-6561
▁Lösungen	-6562
▁hervorge	-6563
▁chocolate	-6564
▁schwerwie	-6565
schaftliche	-6566
▁substances	-6567
▁immediately	-6568
▁technischen	-6569
▁Infrastruktur	-6570
the	-6571
ypr	-6572
trol	-6573
▁Gra	-6574
lines	-6575
thiop	-6576
▁laws	-6577
aution	-6578
▁beige	-6579
▁wants	-6580
▁stimme	-6581
▁reducing	-6582
▁verfolgt	-6583
▁vorlegen	-6584
▁geschieht	-6585
▁comprehens	-6586
▁Minderheiten	-6587
unch	-6588
▁zut	-6589
▁kaum	-6590
▁laid	-6591
▁hinzu	-6592
▁höher	-6593
ighbour	-6594
▁Health	-6595
▁asking	-6596
▁garant	-6597
▁higher	-6598
▁nennen	-6599
▁Sprache	-6600
▁alcohol	-6601
▁company	-6602
▁Anspruch	-6603
▁Währungs	-6604
▁enormous	-6605
▁Procedure	-6606
vi	-6607
COS	-6608
mod	-6609
▁Po	-6610
jähr	-6611
reck	-6612
▁cle	-6613
▁erk	-6614
geber	-6615
▁1995	-6616
gruppe	-6617
ulated	-6618
▁exper	-6619
▁niedr	-6620
▁steps	-6621
▁tasks	-6622
möglich	-6623
▁Bedenken	-6624
▁adopting	-6625
▁anwesend	-6626
▁concentr	-6627
▁neighbour	-6628
▁safeguard	-6629
▁structures	-6630
▁hervorheben	-6631
▁Drittländern	-6632
▁harmonisation	-6633
Gen	-6634
try	-6635
-200	-6636
ique	-6637
wäss	-6638
ören	-6639
▁Grü	-6640
▁prä	-6641
akter	-6642
hafte	-6643
▁Meth	-6644
▁exem	-6645
▁sagt	-6646
strukt	-6647
▁Hause	-6648
▁ideas	-6649
▁Wunsch	-6650
▁beings	-6651
▁defend	-6652
▁factor	-6653
▁anderem	-6654
▁Schritte	-6655
▁Regulation	-6656
▁Unfortunately	-6657
▁außerordentlich	-6658
▁26	-6659
afft	-6660
stag	-6661
wart	-6662
▁debt	-6663
▁send	-6664
chnung	-6665
fällen	-6666
respon	-6667
▁White	-6668
▁aufzu	-6669
▁genet	-6670
▁simpl	-6671
General	-6672
▁chance	-6673
assungen	-6674
ißbrauch	-6675
▁Mindest	-6676
präsident	-6677
▁becoming	-6678
▁richtige	-6679
▁entstehen	-6680
▁Vorschlägen	-6681
▁zuständigen	-6682
▁einverstanden	-6683
▁Rechtsgrundlage	-6684
AN	-6685
pft	-6686
▁90	-6687
rying	-6688
▁Eing	-6689
▁Voll	-6690
höhung	-6691
unsten	-6692
▁Liste	-6693
▁grenz	-6694
▁eigene	-6695
▁letter	-6696
▁compens	-6697
▁building	-6698
▁transfer	-6699
▁According	-6700
▁andererseits	-6701
▁x	-6702
omé	-6703
just	-6704
▁drug	-6705
▁1999,	-6706
▁klare	-6707
▁Drogen	-6708
▁bietet	-6709
▁ethnic	-6710
▁penalt	-6711
▁spezif	-6712
▁unterst	-6713
vorschlag	-6714
▁Anliegen	-6715
▁Drittens	-6716
▁Maßnahme	-6717
▁Republik	-6718
▁adequate	-6719
▁Besorgnis	-6720
▁Gesetzgebung	-6721
▁abgeschlossen	-6722
uz	-6723
wan	-6724
imat	-6725
▁ged	-6726
hthal	-6727
inter	-6728
▁trag	-6729
▁wach	-6730
▁Fälle	-6731
▁heart	-6732
▁Privat	-6733
▁animal	-6734
▁dienen	-6735
▁Nielson	-6736
▁Verletz	-6737
▁Security	-6738
▁Bemerkung	-6739
▁ambitious	-6740
▁criticism	-6741
▁Empfehlungen	-6742
▁Vermittlungs	-6743
uk	-6744
iens	-6745
tete	-6746
oking	-6747
▁türk	-6748
called	-6749
ingdom	-6750
prozeß	-6751
▁March	-6752
gements	-6753
istisch	-6754
▁Waffen	-6755
▁mittel	-6756
▁Dennoch	-6757
▁Schokol	-6758
▁informed	-6759
▁nationale	-6760
▁operations	-6761
▁Abgeordneter	-6762
RO	-6763
bor	-6764
asse	-6765
fält	-6766
▁Wohl	-6767
▁moral	-6768
stitute	-6769
▁closer	-6770
▁formal	-6771
▁fulfil	-6772
▁Thirdly	-6773
▁affairs	-6774
▁enterpr	-6775
▁Auditors	-6776
▁minister	-6777
▁Programms	-6778
▁addressed	-6779
▁labelling	-6780
▁vermeiden	-6781
▁Geschichte	-6782
▁betrachtet	-6783
▁zweifellos	-6784
▁har	-6785
acter	-6786
alien	-6787
▁rele	-6788
▁Leist	-6789
▁record	-6790
▁umwelt	-6791
lamentar	-6792
▁Bestand	-6793
▁handeln	-6794
ventionen	-6795
scheinlich	-6796
▁sämtliche	-6797
▁1,	-6798
amer	-6799
▁deg	-6800
ärenz	-6801
▁easy	-6802
ärkten	-6803
▁weeks	-6804
▁Bereit	-6805
▁Gewähr	-6806
▁Gründe	-6807
▁office	-6808
▁benefits	-6809
▁competit	-6810
▁vehicles	-6811
▁Mitarbeit	-6812
▁beabsicht	-6813
▁dimension	-6814
gef	-6815
oor	-6816
kret	-6817
orre	-6818
▁März	-6819
▁Such	-6820
▁mand	-6821
kosten	-6822
räsent	-6823
wiesen	-6824
▁Spain	-6825
▁Leider	-6826
▁Normen	-6827
▁Willen	-6828
▁Kingdom	-6829
▁involve	-6830
▁positions	-6831
▁sensitive	-6832
▁Angesichts	-6833
▁reasonable	-6834
▁Beobachtungs	-6835
AP	-6836
dle	-6837
ino	-6838
künd	-6839
wahl	-6840
enary	-6841
▁hohe	-6842
ungsan	-6843
▁Italy	-6844
▁ignor	-6845
▁stock	-6846
▁gewiss	-6847
▁letzte	-6848
▁äußern	-6849
▁plenary	-6850
▁Betrifft	-6851
▁Reformen	-6852
▁Veränderungen	-6853
▁einschließlich	-6854
▁Ro	-6855
▁fä	-6856
nimmt	-6857
sized	-6858
ündet	-6859
▁Hohen	-6860
▁rasch	-6861
▁zudem	-6862
▁Verbot	-6863
▁behaup	-6864
▁erweit	-6865
struktur	-6866
▁January	-6867
▁Subject	-6868
▁absolut	-6869
▁erfüllt	-6870
▁methods	-6871
▁network	-6872
▁portugiesische	-6873
▁Ku	-6874
läut	-6875
osen	-6876
ollar	-6877
either	-6878
uerung	-6879
werten	-6880
▁2000,	-6881
▁block	-6882
ffizien	-6883
ungsver	-6884
änglich	-6885
▁Worten	-6886
▁comply	-6887
▁Anfragen	-6888
▁Vorhaben	-6889
▁emphasise	-6890
▁ausdrücklich	-6891
.30	-6892
afr	-6893
orgt	-6894
▁Mex	-6895
▁Sen	-6896
▁Why	-6897
▁jem	-6898
ampag	-6899
orted	-6900
uropa	-6901
ünden	-6902
▁Führ	-6903
▁Alban	-6904
▁Warum	-6905
▁happy	-6906
▁surpr	-6907
▁wider	-6908
▁Formen	-6909
▁Garant	-6910
▁Stimme	-6911
▁gewähl	-6912
freiheit	-6913
zwischen	-6914
▁America	-6915
▁automat	-6916
▁outcome	-6917
▁railway	-6918
▁Fischler	-6919
▁xenophob	-6920
▁Überzeug	-6921
▁Agreement	-6922
▁character	-6923
▁konstrukt	-6924
▁strategic	-6925
▁verwendet	-6926
▁communities	-6927
▁aufgefordert	-6928
ente	-6929
▁obs	-6930
inding	-6931
▁komme	-6932
▁veran	-6933
imately	-6934
▁superv	-6935
abilität	-6936
▁Italien	-6937
▁größten	-6938
▁Agricult	-6939
▁planning	-6940
▁influence	-6941
▁Kontrollen	-6942
▁statements	-6943
▁infrastructure	-6944
20	-6945
ior	-6946
▁27	-6947
▁By	-6948
atur	-6949
iode	-6950
lant	-6951
scht	-6952
▁Mos	-6953
▁Wege	-6954
▁mist	-6955
▁Zweck	-6956
▁müßte	-6957
steller	-6958
▁Chance	-6959
▁grenzüber	-6960
▁konzentrieren	-6961
vo	-6962
▁Sinn	-6963
hebung	-6964
leiten	-6965
▁enfor	-6966
▁finde	-6967
handels	-6968
▁Weiter	-6969
▁Chancen	-6970
▁nunmehr	-6971
▁ständig	-6972
▁tourism	-6973
▁evidence	-6974
▁entwickelt	-6975
▁eingereicht	-6976
▁ausschließlich	-6977
▁recommendations	-6978
spe	-6979
ragt	-6980
▁NRO	-6981
▁rig	-6982
ungsbe	-6983
▁Today	-6984
▁Weißb	-6985
▁angeb	-6986
▁Palest	-6987
▁erwähn	-6988
▁Minutes	-6989
▁Punkten	-6990
▁Vorgehen	-6991
▁elements	-6992
▁Dimension	-6993
▁achieving	-6994
▁advantage	-6995
▁promoting	-6996
▁Beschlüsse	-6997
▁diskutiert	-6998
▁supporting	-6999
▁Überwachung	-7000
▁Voraussetzung	-7001
▁competitiveness	-7002
po	-7003
Ver	-7004
rep	-7005
▁Mc	-7006
laus	-7007
▁amt	-7008
▁Iran	-7009
▁NGOs	-7010
▁Blick	-7011
▁Todes	-7012
▁prior	-7013
enswert	-7014
▁Flexib	-7015
▁transp	-7016
▁deliver	-7017
▁Although	-7018
▁continuing	-7019
▁unabhängig	-7020
▁Bemerkungen	-7021
▁gewährleistet	-7022
schm	-7023
▁Auss	-7024
▁Etik	-7025
▁Even	-7026
▁jetz	-7027
▁mill	-7028
▁Greek	-7029
▁aktiv	-7030
▁moder	-7031
▁Report	-7032
▁gesetz	-7033
▁permit	-7034
ffizienz	-7035
▁Niederl	-7036
▁anderes	-7037
▁figures	-7038
▁weshalb	-7039
▁Erhöhung	-7040
▁carefully	-7041
▁besonderen	-7042
▁betrachten	-7043
▁vorzulegen	-7044
IFE	-7045
onom	-7046
uses	-7047
▁amer	-7048
▁cars	-7049
▁goal	-7050
▁herz	-7051
▁2000.	-7052
▁Beruf	-7053
richten	-7054
▁Januar	-7055
▁fallen	-7056
▁Prüfung	-7057
▁facilit	-7058
▁konkret	-7059
▁Weißbuch	-7060
▁critical	-7061
richtlinie	-7062
▁liability	-7063
▁structure	-7064
▁Milliarden	-7065
▁persönlich	-7066
▁zusätzliche	-7067
▁Überlegungen	-7068
▁Wicht	-7069
▁serve	-7070
▁Einige	-7071
▁Redner	-7072
levision	-7073
▁Pflicht	-7074
▁erklären	-7075
▁sinnvoll	-7076
▁delighted	-7077
▁Verfahrens	-7078
▁representative	-7079
▁ec	-7080
itet	-7081
▁Gef	-7082
ensus	-7083
ström	-7084
uchen	-7085
▁Inst	-7086
▁gebe	-7087
▁Schwe	-7088
▁natur	-7089
▁visit	-7090
▁listen	-7091
▁signed	-7092
▁begrenz	-7093
▁gewisse	-7094
▁Realität	-7095
▁improved	-7096
▁original	-7097
▁interpret	-7098
sbe	-7099
räge	-7100
itory	-7101
▁beef	-7102
▁Fonds	-7103
▁gradu	-7104
▁Consum	-7105
▁Dienste	-7106
▁conduct	-7107
▁dennoch	-7108
▁reduced	-7109
▁wünschen	-7110
▁represents	-7111
▁flexibility	-7112
▁interesting	-7113
▁obligations	-7114
▁politischer	-7115
▁Wissenschaft	-7116
▁gesellschaft	-7117
onic	-7118
samm	-7119
lared	-7120
▁came	-7121
▁Darum	-7122
▁Trotz	-7123
▁falls	-7124
▁appeal	-7125
▁ausges	-7126
▁dramat	-7127
▁Bildungs	-7128
▁außerhalb	-7129
▁Definition	-7130
▁transition	-7131
▁Gerichtshof	-7132
▁parlamentar	-7133
▁unterstütze	-7134
▁vorgesehenen	-7135
▁Globalisierung	-7136
COM	-7137
▁Sa	-7138
oler	-7139
reen	-7140
zure	-7141
▁Lat	-7142
erous	-7143
iddle	-7144
▁Frid	-7145
▁Mobil	-7146
▁compl	-7147
▁Risiko	-7148
▁attend	-7149
▁desire	-7150
▁limits	-7151
chanisms	-7152
tendlich	-7153
beauftrag	-7154
▁equality	-7155
▁künftigen	-7156
▁consultation	-7157
▁comprehensive	-7158
NS	-7159
hre	-7160
pie	-7161
▁31	-7162
ales	-7163
head	-7164
ächt	-7165
alyse	-7166
endes	-7167
otion	-7168
▁test	-7169
▁Freiz	-7170
▁vorge	-7171
▁Fehler	-7172
▁freien	-7173
▁approval	-7174
▁gegebenen	-7175
▁Engagement	-7176
▁akzeptiert	-7177
▁evaluation	-7178
ZB	-7179
za	-7180
▁0	-7181
COD	-7182
reib	-7183
▁Bew	-7184
▁Ord	-7185
iable	-7186
▁LIFE	-7187
▁publ	-7188
▁told	-7189
ateful	-7190
border	-7191
▁Glaub	-7192
▁adapt	-7193
▁gerne	-7194
▁spent	-7195
lexible	-7196
▁Risiken	-7197
▁Schaden	-7198
▁debates	-7199
▁verteid	-7200
▁beträcht	-7201
▁entitled	-7202
▁families	-7203
▁consensus	-7204
▁territory	-7205
▁zugunsten	-7206
▁mechanisms	-7207
▁aufzunehmen	-7208
▁introduction	-7209
nahm	-7210
▁dre	-7211
▁err	-7212
ormen	-7213
ustom	-7214
▁Fore	-7215
▁Many	-7216
▁ehem	-7217
▁hält	-7218
▁rech	-7219
kungen	-7220
▁lines	-7221
▁Abfall	-7222
▁Nutzen	-7223
▁Schwer	-7224
▁Alkohol	-7225
▁history	-7226
▁intends	-7227
▁rejected	-7228
▁technische	-7229
▁österreich	-7230
▁anschließen	-7231
▁betreffenden	-7232
▁construction	-7233
▁nachdrücklich	-7234
AL	-7235
nel	-7236
miss	-7237
▁cal	-7238
▁mag	-7239
ature	-7240
▁grie	-7241
estens	-7242
ilitär	-7243
▁appar	-7244
diction	-7245
▁Mensch	-7246
▁größer	-7247
▁scheme	-7248
▁series	-7249
▁Konsequ	-7250
▁persons	-7251
▁vorange	-7252
▁Kohärenz	-7253
▁erfahren	-7254
▁übrigens	-7255
▁challenges	-7256
▁zahlreichen	-7257
▁Bevölkerungs	-7258
▁Umweltschutz	-7259
▁distribution	-7260
▁Sh	-7261
iste	-7262
▁suc	-7263
▁Klar	-7264
ittees	-7265
ündung	-7266
▁calls	-7267
▁Unions	-7268
▁treten	-7269
▁bekräft	-7270
▁managed	-7271
▁succeed	-7272
▁concrete	-7273
▁erkennen	-7274
▁speziell	-7275
▁Landwirte	-7276
▁guarantees	-7277
▁opposition	-7278
▁hervorragen	-7279
▁Voraussetzungen	-7280
des	-7281
olon	-7282
▁Jed	-7283
embly	-7284
pruch	-7285
ypern	-7286
▁Lärm	-7287
▁dise	-7288
▁floor	-7289
▁neben	-7290
▁shows	-7291
systeme	-7292
▁Streit	-7293
▁income	-7294
ikations	-7295
ustausch	-7296
▁Einfluß	-7297
▁Industr	-7298
▁monopol	-7299
▁Revision	-7300
▁otherwise	-7301
▁Flüchtlinge	-7302
▁aussprechen	-7303
▁Verteidigung	-7304
▁conciliation	-7305
ike	-7306
inens	-7307
yprus	-7308
▁Dann	-7309
▁Wand	-7310
▁miss	-7311
▁sehe	-7312
▁sele	-7313
rochen	-7314
▁Every	-7315
▁class	-7316
▁Russia	-7317
▁attach	-7318
▁bilden	-7319
▁genere	-7320
▁Foreign	-7321
▁century	-7322
▁putting	-7323
▁Vielfalt	-7324
▁balanced	-7325
▁generally	-7326
▁efficiency	-7327
▁differences	-7328
▁Unterschiede	-7329
▁Herausforderung	-7330
mm	-7331
Vert	-7332
▁EZB	-7333
▁Pap	-7334
▁Urs	-7335
▁coll	-7336
▁thre	-7337
▁deleg	-7338
▁offiz	-7339
▁Anteil	-7340
▁Cyprus	-7341
▁degree	-7342
geleitet	-7343
ästinens	-7344
▁related	-7345
▁grateful	-7346
▁includes	-7347
▁Mitglieds	-7348
▁operators	-7349
▁recognition	-7350
▁Ra	-7351
kolog	-7352
▁Barn	-7353
▁Proz	-7354
▁coup	-7355
▁einf	-7356
penden	-7357
▁range	-7358
▁compar	-7359
▁patent	-7360
▁perman	-7361
▁Systems	-7362
▁bezieht	-7363
▁erneuer	-7364
▁Zimbabwe	-7365
▁designed	-7366
▁impossible	-7367
▁verantwortlich	-7368
▁IC	-7369
igne	-7370
ints	-7371
▁Che	-7372
▁Kat	-7373
▁unc	-7374
▁Irak	-7375
▁aims	-7376
issens	-7377
▁Dring	-7378
▁beide	-7379
▁setzt	-7380
fleisch	-7381
samkeit	-7382
tellten	-7383
▁Monate	-7384
▁ehemal	-7385
▁griech	-7386
▁länger	-7387
▁soeben	-7388
▁supply	-7389
▁uneing	-7390
▁African	-7391
▁Etikett	-7392
▁braucht	-7393
▁taxation	-7394
▁coherence	-7395
▁nationaler	-7396
▁precaution	-7397
▁competitive	-7398
EU	-7399
oke	-7400
oßen	-7401
ürok	-7402
▁ECB	-7403
▁pun	-7404
▁wit	-7405
oples	-7406
schäd	-7407
▁gave	-7408
▁komp	-7409
▁erfre	-7410
▁knows	-7411
▁Greens	-7412
▁Kontin	-7413
▁ausger	-7414
▁regime	-7415
▁peoples	-7416
▁Sektoren	-7417
▁Sozialdem	-7418
▁Verhältnis	-7419
▁einbezogen	-7420
▁wiederholen	-7421
▁demokratische	-7422
KOM	-7423
ruh	-7424
▁Kü	-7425
iate	-7426
▁enj	-7427
▁tro	-7428
ifall	-7429
orate	-7430
▁deli	-7431
▁weap	-7432
▁Aufbau	-7433
▁Zypern	-7434
▁announ	-7435
▁tackle	-7436
ügigkeit	-7437
▁demonst	-7438
▁employe	-7439
▁gezeigt	-7440
▁glauben	-7441
inational	-7442
▁consolid	-7443
▁detailed	-7444
▁involves	-7445
▁starting	-7446
▁positiven	-7447
▁reagieren	-7448
▁television	-7449
▁constructive	-7450
▁globalisation	-7451
▁uneingeschrän	-7452
mon	-7453
seh	-7454
▁Yet	-7455
▁ras	-7456
▁vig	-7457
▁vir	-7458
opoul	-7459
älter	-7460
▁Bosn	-7461
▁Cent	-7462
▁Kurz	-7463
▁Wall	-7464
▁auff	-7465
▁shar	-7466
▁Berat	-7467
▁Tagen	-7468
problem	-7469
▁erläut	-7470
▁explain	-7471
chanismen	-7472
▁erzielen	-7473
▁Effizienz	-7474
▁condition	-7475
▁derartige	-7476
uropäischen	-7477
▁expression	-7478
▁Anforderungen	-7479
▁Freizügigkeit	-7480
▁Partnerschaft	-7481
▁internationaler	-7482
▁GM	-7483
▁tw	-7484
fühl	-7485
sman	-7486
engen	-7487
sibly	-7488
▁nahe	-7489
ologie	-7490
▁advoc	-7491
▁enjoy	-7492
zufügen	-7493
igration	-7494
▁Kindern	-7495
▁solcher	-7496
▁Gedanken	-7497
▁Produkte	-7498
▁Unabhäng	-7499
▁meetings	-7500
▁ordnungs	-7501
▁threaten	-7502
▁diversity	-7503
▁Freiheiten	-7504
▁minorities	-7505
▁umfassende	-7506
fiz	-7507
urr	-7508
▁3,	-7509
enze	-7510
heim	-7511
schn	-7512
schw	-7513
▁Anp	-7514
▁Kinn	-7515
▁lost	-7516
▁unbe	-7517
▁Dafür	-7518
▁Insel	-7519
▁admit	-7520
mission	-7521
▁einger	-7522
▁forced	-7523
▁suchen	-7524
▁Kinnock	-7525
▁Spanien	-7526
▁gelungen	-7527
▁reaction	-7528
▁territor	-7529
▁combating	-7530
▁proposing	-7531
▁impression	-7532
▁supplement	-7533
▁Agriculture	-7534
▁Überprüfung	-7535
▁professional	-7536
▁Gleichgewicht	-7537
▁ausgezeichneten	-7538
va	-7539
)).	-7540
dac	-7541
▁29	-7542
ilst	-7543
leun	-7544
▁Gel	-7545
▁arr	-7546
front	-7547
▁heav	-7548
anging	-7549
itable	-7550
▁claim	-7551
▁bureau	-7552
▁dürfte	-7553
▁welcom	-7554
▁Finland	-7555
▁package	-7556
▁realise	-7557
▁session	-7558
▁wenigen	-7559
struction	-7560
▁Besonder	-7561
▁gelangen	-7562
▁proposes	-7563
▁weiterer	-7564
▁happening	-7565
▁Vielleicht	-7566
▁integrated	-7567
▁Dringlichkeit	-7568
olz	-7569
viel	-7570
▁...	-7571
▁Dän	-7572
▁mob	-7573
ublin	-7574
▁Lauf	-7575
▁Mand	-7576
▁Sign	-7577
▁kürz	-7578
▁pros	-7579
atever	-7580
▁Green	-7581
▁Altern	-7582
▁belong	-7583
▁bieten	-7584
▁causes	-7585
▁stabil	-7586
qualität	-7587
▁Angriff	-7588
▁Freedom	-7589
▁ability	-7590
▁defined	-7591
▁failure	-7592
▁fordert	-7593
▁Palestin	-7594
licherweise	-7595
▁Strukturen	-7596
▁Widerspruch	-7597
▁eingegangen	-7598
▁beschäftigen	-7599
15	-7600
▁Bö	-7601
akte	-7602
anda	-7603
cent	-7604
osal	-7605
▁Ben	-7606
esten	-7607
▁Auft	-7608
▁letzt	-7609
sequent	-7610
▁Grünen	-7611
▁Herzen	-7612
▁Moment	-7613
▁effekt	-7614
▁quotas	-7615
▁worked	-7616
reichung	-7617
▁Spanish	-7618
▁ergeben	-7619
sequently	-7620
▁Schengen	-7621
▁annehmen	-7622
▁qualifiz	-7623
▁irgendein	-7624
▁Schokolade	-7625
▁parliaments	-7626
▁Arbeitsmarkt	-7627
▁letztendlich	-7628
12	-7629
läge	-7630
▁Kre	-7631
imals	-7632
▁ones	-7633
cement	-7634
▁Trade	-7635
▁Verzö	-7636
▁oppos	-7637
▁reden	-7638
▁targe	-7639
▁ökolog	-7640
▁appears	-7641
▁niemand	-7642
▁seitens	-7643
▁2000-200	-7644
▁bestimmt	-7645
▁flexible	-7646
▁zurückge	-7647
stellungen	-7648
▁naturally	-7649
▁requested	-7650
▁obligation	-7651
▁unmittelbar	-7652
▁Überzeugung	-7653
▁Technologien	-7654
▁arrangements	-7655
▁multinational	-7656
-,	-7657
AT	-7658
ón	-7659
rel	-7660
uin	-7661
▁2,	-7662
▁sw	-7663
rupt	-7664
stat	-7665
uell	-7666
vent	-7667
▁spok	-7668
▁stär	-7669
▁Osten	-7670
▁added	-7671
▁dauer	-7672
▁geför	-7673
▁neues	-7674
▁welch	-7675
ermaßen	-7676
vereign	-7677
▁Presse	-7678
▁Vorred	-7679
▁border	-7680
▁manage	-7681
▁inspect	-7682
▁Rechnung	-7683
▁bedeuten	-7684
▁purposes	-7685
▁Liberalen	-7686
▁occasions	-7687
▁sovereign	-7688
▁betreffend	-7689
▁Zentralbank	-7690
▁forthcoming	-7691
▁gratulieren	-7692
▁kulturellen	-7693
▁vollständig	-7694
▁durchzuführen	-7695
▁vorgeschlagene	-7696
benen	-7697
inner	-7698
oning	-7699
▁Hoch	-7700
▁erör	-7701
▁zeit	-7702
gendes	-7703
▁regel	-7704
▁types	-7705
führten	-7706
periode	-7707
ugoslaw	-7708
▁custom	-7709
▁approve	-7710
▁elected	-7711
▁growing	-7712
▁seeking	-7713
▁abstimmen	-7714
▁erfolgreich	-7715
▁entschlossen	-7716
▁ausgesprochen	-7717
▁contributions	-7718
nt	-7719
Die	-7720
hib	-7721
öhn	-7722
ünde	-7723
▁Mir	-7724
tehen	-7725
▁High	-7726
▁isol	-7727
▁milk	-7728
commun	-7729
haften	-7730
▁Konflik	-7731
▁examine	-7732
▁maximum	-7733
▁politic	-7734
▁Arbeiten	-7735
▁angebracht	-7736
▁verbessert	-7737
▁sogenannten	-7738
▁vorgenommen	-7739
▁Abstimmungen	-7740
appe	-7741
▁Ban	-7742
ivity	-7743
kommt	-7744
sucht	-7745
weder	-7746
ählen	-7747
▁2003	-7748
▁vert	-7749
reitet	-7750
▁timet	-7751
ürokrat	-7752
▁Aktion	-7753
▁Dublin	-7754
▁achten	-7755
▁angeht	-7756
▁benach	-7757
▁sofort	-7758
▁Element	-7759
▁citizen	-7760
▁drawing	-7761
▁thereby	-7762
▁Consumer	-7763
▁supports	-7764
▁subsidies	-7765
▁participate	-7766
▁Vorbereitung	-7767
▁Wirklichkeit	-7768
▁wahrscheinlich	-7769
yer	-7770
ford	-7771
▁don	-7772
▁hor	-7773
craft	-7774
▁Chin	-7775
▁From	-7776
selben	-7777
▁Freit	-7778
▁einig	-7779
▁hours	-7780
▁legen	-7781
▁seien	-7782
▁toler	-7783
▁Erwart	-7784
▁choice	-7785
▁tempor	-7786
▁animals	-7787
▁erfolgt	-7788
▁erhöhen	-7789
▁opposed	-7790
▁presence	-7791
▁erfordert	-7792
▁qualified	-7793
▁vorbereit	-7794
▁Fortschritt	-7795
▁individuals	-7796
▁nonetheless	-7797
▁schwerwiegen	-7798
▁technologies	-7799
CNS	-7800
zed	-7801
▁etc	-7802
emark	-7803
itage	-7804
schau	-7805
▁late	-7806
▁Eigen	-7807
▁Verhe	-7808
▁vorbe	-7809
ugnisse	-7810
wirkung	-7811
▁Haider	-7812
▁betont	-7813
▁umfang	-7814
▁vertra	-7815
▁geprüft	-7816
▁spricht	-7817
▁Schulden	-7818
▁greatest	-7819
▁größeren	-7820
▁gegenseit	-7821
▁guaranteed	-7822
▁Erzeugnisse	-7823
▁Kriminalität	-7824
▁Umweltfragen	-7825
▁restrictions	-7826
altet	-7827
erten	-7828
lying	-7829
▁Prof	-7830
▁writ	-7831
Europe	-7832
worfen	-7833
▁Basis	-7834
▁Techn	-7835
▁Tunis	-7836
▁Verst	-7837
▁proof	-7838
▁Irland	-7839
▁Status	-7840
▁destro	-7841
▁seines	-7842
ilateral	-7843
leistung	-7844
▁Konzept	-7845
▁Versuch	-7846
▁getting	-7847
▁regular	-7848
▁reinfor	-7849
▁respekt	-7850
▁geändert	-7851
▁strongly	-7852
▁Petitions	-7853
▁stehenden	-7854
▁teilweise	-7855
▁übertragen	-7856
▁Verständnis	-7857
▁[	-7858
agu	-7859
uli	-7860
▁EM	-7861
brit	-7862
▁197	-7863
▁Nah	-7864
▁dro	-7865
▁hop	-7866
klang	-7867
▁Ents	-7868
▁Haft	-7869
▁Only	-7870
erring	-7871
▁mobil	-7872
▁occup	-7873
▁anyone	-7874
▁launch	-7875
ktivität	-7876
▁Produkt	-7877
▁Univers	-7878
▁airport	-7879
▁factors	-7880
▁nachdem	-7881
▁Dänemark	-7882
▁Einigung	-7883
▁aircraft	-7884
▁einzigen	-7885
▁payments	-7886
▁emissions	-7887
▁entscheid	-7888
▁Gemeinsame	-7889
▁committees	-7890
▁immigrants	-7891
▁manufactur	-7892
▁precautionary	-7893
bo	-7894
ash	-7895
▁Bu	-7896
ples	-7897
wegs	-7898
zone	-7899
▁won	-7900
attet	-7901
heits	-7902
▁2006	-7903
▁ging	-7904
▁wert	-7905
active	-7906
▁Ihrem	-7907
▁Jetzt	-7908
▁meant	-7909
▁mittl	-7910
▁optim	-7911
▁truly	-7912
lemente	-7913
mittelt	-7914
▁Centre	-7915
▁daraus	-7916
▁gelöst	-7917
▁gewalt	-7918
▁stimmt	-7919
▁Control	-7920
▁Eurodac	-7921
▁extended	-7922
▁sensible	-7923
▁Verheugen	-7924
▁versichern	-7925
▁Ratsvorsitz	-7926
▁vorschlagen	-7927
feindlichkeit	-7928
bry	-7929
▁Ak	-7930
lause	-7931
rimes	-7932
▁tool	-7933
▁Erika	-7934
▁Vorbe	-7935
▁bound	-7936
▁sides	-7937
Vertrag	-7938
britann	-7939
▁Zahlen	-7940
▁assure	-7941
▁warten	-7942
▁Barnier	-7943
▁amongst	-7944
▁extreme	-7945
▁resolve	-7946
▁Gefahren	-7947
▁diesbezü	-7948
▁herzlich	-7949
▁jüngsten	-7950
▁accidents	-7951
▁perfectly	-7952
▁einerseits	-7953
▁übernommen	-7954
▁Großbritann	-7955
▁diesbezüglich	-7956
▁landwirtschaft	-7957
▁fü	-7958
ibed	-7959
year	-7960
▁Don	-7961
greif	-7962
▁Juli	-7963
▁deep	-7964
istics	-7965
▁Viele	-7966
▁Waren	-7967
▁inade	-7968
▁react	-7969
▁abgele	-7970
▁größte	-7971
▁unless	-7972
▁experts	-7973
▁zuletzt	-7974
▁besseren	-7975
▁controls	-7976
▁entirely	-7977
▁anerkannt	-7978
▁erscheint	-7979
▁convention	-7980
▁notwendige	-7981
▁Hintergrund	-7982
▁vorgelegten	-7983
nach	-7984
▁ult	-7985
assend	-7986
cision	-7987
verein	-7988
▁plant	-7989
▁Welche	-7990
▁bezahl	-7991
▁wünsch	-7992
▁Familie	-7993
▁Freitag	-7994
▁bureauc	-7995
▁clarify	-7996
▁contact	-7997
▁fordere	-7998
▁genannt	-7999
▁neither	-8000
▁Hoffnung	-8001
▁beziehen	-8002
▁Erarbeitung	-8003
▁wesentliche	-8004
▁einheitlichen	-8005
umed	-8006
▁300	-8007
▁emb	-8008
▁lay	-8009
▁tut	-8010
reben	-8011
teten	-8012
actory	-8013
itives	-8014
▁außen	-8015
▁remov	-8016
▁insist	-8017
▁kleine	-8018
▁mechan	-8019
pendence	-8020
▁Europol	-8021
▁Nachbar	-8022
▁operate	-8023
▁vorrang	-8024
▁Vorsorge	-8025
▁instance	-8026
▁verständ	-8027
▁conflicts	-8028
▁umzusetzen	-8029
▁Stabilitäts	-8030
▁understanding	-8031
▁unterstreichen	-8032
ugg	-8033
utr	-8034
akis	-8035
osev	-8036
▁Bek	-8037
▁Ter	-8038
besch	-8039
regel	-8040
▁Ganz	-8041
▁Rind	-8042
▁frag	-8043
▁genü	-8044
▁sorg	-8045
ishing	-8046
▁Phase	-8047
▁incin	-8048
▁ready	-8049
ugoslav	-8050
▁Beweis	-8051
▁Serbia	-8052
▁binding	-8053
▁geeigne	-8054
▁opening	-8055
▁schrift	-8056
▁started	-8057
▁Finnland	-8058
▁prospect	-8059
▁nationals	-8060
▁Vorschlags	-8061
▁eingeführt	-8062
▁beschäftigt	-8063
▁einzelstaat	-8064
▁grundlegenden	-8065
▁Vereinbarungen	-8066
▁Übereinstimmung	-8067
SP	-8068
mb	-8069
ube	-8070
▁Ru	-8071
▁Sk	-8072
▁ey	-8073
▁kn	-8074
ille	-8075
itel	-8076
ming	-8077
udem	-8078
▁500	-8079
▁Lomé	-8080
▁feed	-8081
▁lies	-8082
ifteen	-8083
schrän	-8084
▁Befür	-8085
▁Exper	-8086
▁Besuch	-8087
▁facing	-8088
schiedet	-8089
▁Italian	-8090
▁begrüßt	-8091
▁finance	-8092
ichtlinie	-8093
▁Sprachen	-8094
▁Yugoslav	-8095
▁gewissen	-8096
▁jetzigen	-8097
▁monetary	-8098
▁separate	-8099
▁Charakter	-8100
▁practices	-8101
▁renewable	-8102
▁Verbrechen	-8103
▁xenophobia	-8104
▁declaration	-8105
▁proceedings	-8106
▁vorliegende	-8107
▁Diskussionen	-8108
▁implications	-8109
RB	-8110
▁u	-8111
set	-8112
raums	-8113
reche	-8114
unruh	-8115
volle	-8116
▁Begr	-8117
▁loss	-8118
▁Zudem	-8119
▁decis	-8120
▁fällt	-8121
▁tätig	-8122
▁union	-8123
läßlich	-8124
systems	-8125
▁crimes	-8126
▁delays	-8127
▁erlaub	-8128
▁exists	-8129
▁falsch	-8130
▁leiden	-8131
▁Beamten	-8132
▁Milosev	-8133
▁Ordnung	-8134
▁zufolge	-8135
programme	-8136
▁occasion	-8137
▁Prinzipien	-8138
▁Resolution	-8139
▁electronic	-8140
▁verstanden	-8141
▁verurteilt	-8142
▁Mitgliedern	-8143
▁staatlichen	-8144
▁verabschiedet	-8145
ws	-8146
▁Ky	-8147
RBAN	-8148
udes	-8149
iform	-8150
inken	-8151
▁July	-8152
astern	-8153
gested	-8154
▁aimed	-8155
▁dynam	-8156
▁paper	-8157
▁trägt	-8158
reitung	-8159
▁Angaben	-8160
▁anstatt	-8161
▁verring	-8162
▁Einklang	-8163
▁ausgehen	-8164
▁folgende	-8165
▁möglichen	-8166
▁Übergangs	-8167
▁difference	-8168
▁Untersuchung	-8169
▁üb	-8170
omit	-8171
path	-8172
schl	-8173
aaten	-8174
akten	-8175
ompan	-8176
▁Jung	-8177
▁fern	-8178
▁pill	-8179
▁sole	-8180
▁thor	-8181
kommun	-8182
▁recyc	-8183
assungs	-8184
▁Heimat	-8185
▁Modell	-8186
▁likely	-8187
▁postal	-8188
▁Denmark	-8189
▁Hinweis	-8190
▁Konsult	-8191
▁conserv	-8192
▁interin	-8193
▁welchen	-8194
▁witness	-8195
isierungs	-8196
▁Sitzungs	-8197
▁thorough	-8198
▁terrorism	-8199
▁bestimmter	-8200
▁inzwischen	-8201
communications	-8202
AC	-8203
IA	-8204
uts	-8205
bere	-8206
elbe	-8207
hofs	-8208
äumt	-8209
▁Bil	-8210
▁Bro	-8211
▁Kle	-8212
▁Lud	-8213
▁fla	-8214
▁unf	-8215
ather	-8216
ildet	-8217
techn	-8218
waren	-8219
▁Akte	-8220
▁Bang	-8221
▁ende	-8222
▁stip	-8223
▁Kohäs	-8224
fassung	-8225
▁Meines	-8226
▁eingeb	-8227
▁linked	-8228
▁genutzt	-8229
▁speaker	-8230
▁urgency	-8231
▁Botschaft	-8232
▁benötigen	-8233
▁employees	-8234
▁justified	-8235
▁protecting	-8236
▁enterprises	-8237
▁informieren	-8238
▁Verhandlungs	-8239
.5	-8240
berg	-8241
chst	-8242
fuhr	-8243
mbud	-8244
qual	-8245
steht	-8246
▁vess	-8247
atters	-8248
▁Flugh	-8249
▁apart	-8250
▁board	-8251
▁frequ	-8252
▁lower	-8253
▁space	-8254
▁taxes	-8255
▁voran	-8256
atively	-8257
hörigen	-8258
▁Sorgen	-8259
▁denken	-8260
▁displa	-8261
▁passen	-8262
▁Analyse	-8263
▁Handeln	-8264
▁solches	-8265
▁mehreren	-8266
▁minority	-8267
▁rational	-8268
▁Milosevic	-8269
▁allocated	-8270
▁bekämpfen	-8271
▁gefördert	-8272
▁Socialists	-8273
▁informiert	-8274
▁Rechnungshof	-8275
▁Entwicklungen	-8276
▁elektronischen	-8277
tin	-8278
ued	-8279
unk	-8280
▁35	-8281
▁ut	-8282
▁Öl	-8283
aler	-8284
asst	-8285
geiz	-8286
▁unl	-8287
andal	-8288
fähig	-8289
icity	-8290
▁URBAN	-8291
▁break	-8292
▁eröff	-8293
▁scale	-8294
ategory	-8295
▁Legisl	-8296
▁klaren	-8297
▁Anlagen	-8298
▁imposed	-8299
▁leading	-8300
▁letzter	-8301
▁mission	-8302
▁niemals	-8303
▁richten	-8304
▁sichern	-8305
▁Argument	-8306
▁heritage	-8307
▁Budgetary	-8308
▁languages	-8309
▁letztlich	-8310
▁promotion	-8311
▁protected	-8312
rechtlichen	-8313
▁erhebliche	-8314
▁wirklichen	-8315
gemeinschaft	-8316
▁Flexibilität	-8317
▁demonstrated	-8318
ME	-8319
irk	-8320
ürf	-8321
▁95	-8322
avour	-8323
celon	-8324
chsel	-8325
iffer	-8326
rates	-8327
▁Moro	-8328
▁auft	-8329
▁sold	-8330
celona	-8331
▁Krank	-8332
▁noted	-8333
▁solve	-8334
etschen	-8335
zureich	-8336
▁Maastr	-8337
▁Market	-8338
▁Märkte	-8339
▁Tagung	-8340
▁centre	-8341
▁failed	-8342
▁reiter	-8343
sammlung	-8344
ulations	-8345
▁Kategor	-8346
▁Verlauf	-8347
▁italien	-8348
▁weapons	-8349
▁welcher	-8350
▁Monetary	-8351
▁Reaktion	-8352
▁Barcelona	-8353
▁erheblich	-8354
▁immediate	-8355
▁perspective	-8356
▁requirement	-8357
▁ordnungsgemäß	-8358
ya	-8359
▁Je	-8360
dent	-8361
stac	-8362
▁Erk	-8363
▁Tem	-8364
▁enh	-8365
▁erf	-8366
angel	-8367
▁aver	-8368
▁nütz	-8369
▁präz	-8370
istenz	-8371
▁älter	-8372
orthern	-8373
session	-8374
verletz	-8375
▁define	-8376
▁Abfälle	-8377
▁Februar	-8378
▁Polizei	-8379
▁bedauer	-8380
▁February	-8381
▁Socialist	-8382
▁considers	-8383
▁exclusion	-8384
▁verstärkt	-8385
▁undertaken	-8386
▁miteinander	-8387
▁schwierigen	-8388
/9	-8389
pts	-8390
▁70	-8391
lose	-8392
▁Yor	-8393
▁imag	-8394
sätzen	-8395
spartei	-8396
▁Middle	-8397
▁transl	-8398
▁verlei	-8399
▁evening	-8400
▁geboten	-8401
▁geäußert	-8402
▁judicial	-8403
schetschen	-8404
▁wichtiges	-8405
▁Maastricht	-8406
▁Außenpolitik	-8407
▁Luftverkehrs	-8408
▁hervorgehoben	-8409
%.	-8410
det	-8411
ris	-8412
ump	-8413
xts	-8414
enkt	-8415
ound	-8416
▁zuk	-8417
acher	-8418
ignet	-8419
isted	-8420
stoff	-8421
▁Bund	-8422
▁Verk	-8423
▁dign	-8424
gebiet	-8425
▁clean	-8426
▁frage	-8427
ception	-8428
verschm	-8429
▁1999/0	-8430
▁Südafr	-8431
▁Zusätz	-8432
▁angest	-8433
▁depart	-8434
▁obstac	-8435
▁Banglad	-8436
▁Steuern	-8437
▁compuls	-8438
stehenden	-8439
▁Kompeten	-8440
▁followed	-8441
▁repeated	-8442
▁revision	-8443
▁whatever	-8444
▁unzureich	-8445
▁verweisen	-8446
▁interested	-8447
▁Bürgerbeauftrag	-8448
ton	-8449
▁Ann	-8450
icate	-8451
lings	-8452
▁1994	-8453
person	-8454
▁Angol	-8455
▁Vitor	-8456
▁derog	-8457
▁gründ	-8458
▁night	-8459
▁round	-8460
▁vorzu	-8461
▁sprach	-8462
▁underm	-8463
▁mandate	-8464
▁suspend	-8465
▁Problems	-8466
▁examples	-8467
▁railways	-8468
▁resolved	-8469
▁contained	-8470
▁existence	-8471
▁praktisch	-8472
▁suffering	-8473
▁thousands	-8474
▁allgemeine	-8475
▁associated	-8476
▁legitimate	-8477
▁speziellen	-8478
▁Terrorismus	-8479
▁hoffentlich	-8480
▁rapporteurs	-8481
▁Commissioners	-8482
rak	-8483
abor	-8484
ette	-8485
hold	-8486
what	-8487
verän	-8488
▁Soll	-8489
▁acts	-8490
▁coast	-8491
▁faced	-8492
lichung	-8493
▁Ebenso	-8494
▁Lastly	-8495
▁Zielen	-8496
▁lebens	-8497
▁passed	-8498
▁Schiffe	-8499
▁Simbabwe	-8500
▁numerous	-8501
▁weiteres	-8502
leistungen	-8503
▁permanent	-8504
▁respected	-8505
▁abgestimmt	-8506
▁Katastrophe	-8507
▁Unterschied	-8508
▁Mitentscheid	-8509
▁Wiederaufbau	-8510
▁schwedischen	-8511
DS	-8512
jekt	-8513
open	-8514
▁KMU	-8515
▁Wür	-8516
▁afr	-8517
▁Klim	-8518
▁irre	-8519
▁münd	-8520
ziplin	-8521
▁Monti	-8522
▁dahin	-8523
▁horiz	-8524
▁teile	-8525
grenzen	-8526
▁Danish	-8527
▁signal	-8528
▁spielt	-8529
▁target	-8530
▁veröff	-8531
standing	-8532
▁Wirkung	-8533
▁briefly	-8534
▁courage	-8535
▁forests	-8536
▁meaning	-8537
▁precise	-8538
▁schemes	-8539
▁verbind	-8540
icherungs	-8541
▁abgelehnt	-8542
▁ernsthaft	-8543
▁geltenden	-8544
▁ausreichen	-8545
▁innovative	-8546
▁proportion	-8547
▁consumption	-8548
▁festzulegen	-8549
▁nevertheless	-8550
▁Arbeitsplätzen	-8551
DR	-8552
zi	-8553
ugt	-8554
mium	-8555
upts	-8556
▁Imp	-8557
▁Rad	-8558
▁fil	-8559
▁nöt	-8560
iting	-8561
▁1992	-8562
▁Kind	-8563
▁erle	-8564
ground	-8565
undred	-8566
▁12.00	-8567
▁Burma	-8568
▁North	-8569
▁Aufent	-8570
▁damals	-8571
▁kennen	-8572
▁shared	-8573
▁stattf	-8574
▁Hindern	-8575
▁Ludford	-8576
▁Rentner	-8577
▁schlimm	-8578
▁sources	-8579
▁verfügt	-8580
▁zukünft	-8581
▁possibly	-8582
▁somewhat	-8583
▁compulsory	-8584
▁Mittelpunkt	-8585
▁beschränken	-8586
▁eingehalten	-8587
▁sufficiently	-8588
▁reconstruction	-8589
sc	-8590
▁CO	-8591
boda	-8592
izza	-8593
uens	-8594
▁Fäh	-8595
▁Swo	-8596
ahren	-8597
hrten	-8598
▁Haar	-8599
▁Mart	-8600
▁virt	-8601
schlag	-8602
▁Anlaß	-8603
▁Güter	-8604
▁Prakt	-8605
▁abuse	-8606
dienste	-8607
▁Meeres	-8608
▁Teilen	-8609
▁disapp	-8610
▁placed	-8611
▁purely	-8612
wareness	-8613
▁Swoboda	-8614
▁changed	-8615
▁highest	-8616
▁legally	-8617
▁stärken	-8618
▁Zwischen	-8619
▁bringing	-8620
▁fighting	-8621
▁politics	-8622
▁Abkommens	-8623
▁problemat	-8624
▁timetable	-8625
▁Telekommun	-8626
▁personally	-8627
▁Ausarbeitung	-8628
▁Feststellung	-8629
▁Regionalpolitik	-8630
hlt	-8631
▁4,	-8632
uren	-8633
▁Bec	-8634
▁fle	-8635
union	-8636
▁1993	-8637
▁grav	-8638
amente	-8639
eichen	-8640
grunde	-8641
▁worse	-8642
ampagne	-8643
▁Buiten	-8644
▁Genehm	-8645
▁Stoffe	-8646
▁müßten	-8647
▁prohib	-8648
▁schlägt	-8649
strategie	-8650
▁Assembly	-8651
▁Meinungs	-8652
▁Ungleich	-8653
▁erleicht	-8654
▁supposed	-8655
▁verloren	-8656
▁Berichten	-8657
▁Umständen	-8658
▁insurance	-8659
▁mitteilen	-8660
▁Gegenstand	-8661
▁facilitate	-8662
▁Bestandteil	-8663
▁involvement	-8664
▁sicherzustellen	-8665
40	-8666
PT	-8667
anen	-8668
auso	-8669
wide	-8670
▁hom	-8671
ables	-8672
uting	-8673
ichert	-8674
orient	-8675
strafe	-8676
▁equip	-8677
▁secure	-8678
▁stelle	-8679
▁whilst	-8680
mbudsman	-8681
vergence	-8682
▁beunruh	-8683
▁climate	-8684
▁cloning	-8685
▁lokalen	-8686
▁überall	-8687
▁aviation	-8688
▁erinnert	-8689
▁zugrunde	-8690
ungsbereich	-8691
▁competence	-8692
▁credibility	-8693
ara	-8694
hle	-8695
uner	-8696
▁Ern	-8697
barer	-8698
wirkt	-8699
▁Nice	-8700
▁acht	-8701
▁base	-8702
▁doct	-8703
▁phen	-8704
▁Other	-8705
▁jenen	-8706
handelt	-8707
▁Anzahl	-8708
▁jungen	-8709
▁moving	-8710
isierten	-8711
isziplin	-8712
▁Because	-8713
▁Marktes	-8714
▁Schäden	-8715
▁Ausnahme	-8716
▁Perspekt	-8717
▁Vorteile	-8718
▁disposal	-8719
▁phenomen	-8720
handlungen	-8721
instrument	-8722
▁bedeutsam	-8723
▁elsewhere	-8724
▁suggested	-8725
▁verstärken	-8726
▁wichtigste	-8727
▁Produktions	-8728
▁festgelegten	-8729
▁Großbritannien	-8730
▁fu	-8731
meld	-8732
▁abz	-8733
▁Left	-8734
kräfte	-8735
zieren	-8736
▁Krise	-8737
▁Roman	-8738
▁abend	-8739
▁gestr	-8740
Staaten	-8741
greifen	-8742
uführen	-8743
▁Modern	-8744
▁auffor	-8745
▁exclus	-8746
▁Serbien	-8747
▁charter	-8748
urteilung	-8749
▁Elemente	-8750
▁Vitorino	-8751
▁generell	-8752
▁opinions	-8753
▁sorgfält	-8754
▁Arbeitspl	-8755
▁awareness	-8756
▁continent	-8757
▁correspon	-8758
▁Produktion	-8759
▁finanziert	-8760
▁Erwartungen	-8761
▁Volkspartei	-8762
▁eingebracht	-8763
▁menschlichen	-8764
▁undertakings	-8765
▁Binnenmarktes	-8766
▁technological	-8767
FO	-8768
Ber	-8769
Mit	-8770
uck	-8771
▁Aid	-8772
▁Rel	-8773
ffung	-8774
örper	-8775
▁York	-8776
▁jung	-8777
▁tief	-8778
▁Guine	-8779
▁Nizza	-8780
▁bedro	-8781
▁hören	-8782
▁zerst	-8783
▁lautet	-8784
▁margin	-8785
▁travel	-8786
▁Systeme	-8787
▁categor	-8788
▁dignity	-8789
▁dritten	-8790
▁ehrgeiz	-8791
▁hundred	-8792
▁verlangt	-8793
▁applicant	-8794
▁substance	-8795
▁Verletzung	-8796
▁beeinträcht	-8797
▁rechtlichen	-8798
▁Untersuchungen	-8799
▁gegebenenfalls	-8800
(2	-8801
)]	-8802
VP	-8803
hy	-8804
nü	-8805
oub	-8806
reb	-8807
▁Ja	-8808
ixed	-8809
undi	-8810
usal	-8811
üben	-8812
▁Oct	-8813
sieht	-8814
▁Idee	-8815
gehens	-8816
vollen	-8817
▁benef	-8818
▁zweck	-8819
▁Alters	-8820
▁Niveau	-8821
▁Secret	-8822
▁afford	-8823
▁incent	-8824
regelung	-8825
▁October	-8826
▁farming	-8827
▁happens	-8828
▁illustr	-8829
ordnungen	-8830
otechnolog	-8831
▁cooperate	-8832
▁temporary	-8833
▁codecision	-8834
▁compensation	-8835
▁unverzüglich	-8836
▁Vorsorgeprinzip	-8837
mos	-8838
▁Är	-8839
gers	-8840
iene	-8841
usst	-8842
▁Are	-8843
ulich	-8844
▁Flor	-8845
▁chem	-8846
▁slow	-8847
ischem	-8848
schefs	-8849
▁facts	-8850
▁näher	-8851
▁prosp	-8852
▁works	-8853
zwungen	-8854
▁Bedürf	-8855
▁Geneva	-8856
▁acquis	-8857
▁gebill	-8858
▁prison	-8859
▁Instead	-8860
▁Western	-8861
▁amended	-8862
▁perform	-8863
▁postpon	-8864
▁schools	-8865
▁darunter	-8866
▁decisive	-8867
▁identity	-8868
▁disasters	-8869
▁endeavour	-8870
▁regionale	-8871
▁residence	-8872
▁verlangen	-8873
▁zuständig	-8874
▁violations	-8875
▁Luftverkehr	-8876
▁convergence	-8877
▁operational	-8878
iry	-8879
nes	-8880
öße	-8881
▁32	-8882
▁EG	-8883
apan	-8884
herr	-8885
▁See	-8886
▁dän	-8887
alter	-8888
aters	-8889
lined	-8890
viour	-8891
▁Beisp	-8892
▁Ident	-8893
▁attra	-8894
itizens	-8895
partner	-8896
▁Office	-8897
▁Quoten	-8898
▁potent	-8899
▁source	-8900
▁Gesetze	-8901
▁average	-8902
▁deliber	-8903
▁nächste	-8904
▁relates	-8905
▁remarks	-8906
▁version	-8907
▁stressed	-8908
▁withdraw	-8909
ifizierung	-8910
▁Europeans	-8911
▁Wachstums	-8912
▁emergency	-8913
▁universal	-8914
▁compliance	-8915
▁überzeugen	-8916
▁association	-8917
▁considering	-8918
▁explanation	-8919
▁politicians	-8920
▁traditional	-8921
▁Agrarpolitik	-8922
▁improvements	-8923
án	-8924
▁af	-8925
wind	-8926
▁Dav	-8927
▁Ele	-8928
▁Fuß	-8929
▁Okt	-8930
▁kam	-8931
fahrt	-8932
icted	-8933
älfte	-8934
▁1990	-8935
ökonom	-8936
▁Prime	-8937
▁drast	-8938
▁juris	-8939
▁appell	-8940
▁rechts	-8941
▁Oktober	-8942
▁bewegen	-8943
▁opposite	-8944
▁facilities	-8945
▁Andererseits	-8946
▁beabsichtigt	-8947
25	-8948
oon	-8949
▁tä	-8950
cast	-8951
engt	-8952
icip	-8953
täus	-8954
▁Car	-8955
▁Sow	-8956
▁Vel	-8957
▁ton	-8958
▁via	-8959
bring	-8960
derly	-8961
ender	-8962
gebie	-8963
going	-8964
ücken	-8965
▁Engl	-8966
apital	-8967
▁ahead	-8968
▁hands	-8969
▁korre	-8970
▁ports	-8971
▁prove	-8972
behörde	-8973
▁Friday	-8974
▁orient	-8975
▁partly	-8976
▁sexual	-8977
issionen	-8978
▁Britain	-8979
▁Haarder	-8980
▁abstain	-8981
▁koordin	-8982
▁studies	-8983
▁requests	-8984
▁Beispiele	-8985
▁Schreiben	-8986
▁Vorredner	-8987
▁published	-8988
▁rechtfert	-8989
▁umfassend	-8990
▁derzeitige	-8991
▁entstanden	-8992
▁keineswegs	-8993
▁eingeleitet	-8994
▁funktioniert	-8995
▁grundlegende	-8996
▁zurückzuführen	-8997
aka	-8998
▁Sw	-8999
▁Ze	-9000
netz	-9001
▁Erd	-9002
▁bla	-9003
▁dan	-9004
▁Home	-9005
▁Malt	-9006
▁Rese	-9007
▁Rule	-9008
▁lose	-9009
▁Beste	-9010
▁Leute	-9011
▁natür	-9012
▁truth	-9013
ommerce	-9014
▁Ausmaß	-9015
▁Straft	-9016
▁absurd	-9017
▁latter	-9018
▁qualit	-9019
▁spoken	-9020
▁volunt	-9021
▁wenige	-9022
national	-9023
▁Perhaps	-9024
▁Rechten	-9025
▁Stauner	-9026
▁amounts	-9027
▁berecht	-9028
▁written	-9029
▁Europäer	-9030
▁Internal	-9031
▁allowing	-9032
▁applying	-9033
▁emphasis	-9034
▁subjects	-9035
würdigkeit	-9036
▁Erfahrung	-9037
▁Erhaltung	-9038
▁Politiker	-9039
▁Vorgehens	-9040
▁arguments	-9041
▁exception	-9042
▁Kandidaten	-9043
▁Luxembourg	-9044
▁erarbeitet	-9045
▁vollkommen	-9046
▁Mitarbeiter	-9047
▁highlighted	-9048
▁incorporated	-9049
VO	-9050
len	-9051
aket	-9052
rate	-9053
▁Neu	-9054
igent	-9055
tzeit	-9056
▁fine	-9057
räften	-9058
▁1998,	-9059
▁Geber	-9060
▁Häfen	-9061
▁Irish	-9062
▁allzu	-9063
▁fehlt	-9064
igerung	-9065
▁Hälfte	-9066
▁bemüht	-9067
▁elimin	-9068
▁wealth	-9069
Programm	-9070
▁Verring	-9071
▁elderly	-9072
▁gezogen	-9073
▁protest	-9074
▁uniform	-9075
enntnisse	-9076
▁Research	-9077
▁angekünd	-9078
▁democrat	-9079
▁offenbar	-9080
▁privaten	-9081
▁secondly	-9082
▁bestätigt	-9083
▁concluded	-9084
▁excessive	-9085
▁extension	-9086
▁indicated	-9087
▁ländliche	-9088
▁preparing	-9089
▁verleihen	-9090
entwicklung	-9091
okratischen	-9092
▁benachteil	-9093
▁hinzufügen	-9094
▁befürworten	-9095
▁investments	-9096
▁sicherstellen	-9097
TA	-9098
ps	-9099
ufe	-9100
ifth	-9101
ingu	-9102
orse	-9103
ques	-9104
tein	-9105
▁Any	-9106
▁sla	-9107
▁süd	-9108
endum	-9109
organ	-9110
▁EMAS	-9111
▁Ober	-9112
▁Trag	-9113
▁West	-9114
▁foot	-9115
▁Stadt	-9116
▁Verbr	-9117
▁rates	-9118
lehnung	-9119
▁Basque	-9120
▁Nether	-9121
▁Organe	-9122
▁jemand	-9123
▁kurzem	-9124
▁trifft	-9125
▁vieler	-9126
▁Budgets	-9127
▁Wahrung	-9128
▁nations	-9129
▁spreche	-9130
▁historic	-9131
▁wiederum	-9132
▁Antworten	-9133
▁Beachtung	-9134
▁Gegensatz	-9135
▁auftreten	-9136
▁continued	-9137
▁spezielle	-9138
▁Beitrittsk	-9139
▁inadequate	-9140
▁Ausgrenzung	-9141
▁Netherlands	-9142
▁Vorausschau	-9143
▁concentrate	-9144
▁demonstrate	-9145
▁Fremdenverkehr	-9146
kre	-9147
van	-9148
yed	-9149
fers	-9150
onia	-9151
änge	-9152
▁Inn	-9153
▁Lab	-9154
▁SME	-9155
▁kil	-9156
ärkte	-9157
▁Wald	-9158
▁inev	-9159
▁Milch	-9160
▁valid	-9161
berecht	-9162
folgung	-9163
nahmere	-9164
nehmern	-9165
▁1999/2	-9166
▁Common	-9167
▁Ladies	-9168
▁Obwohl	-9169
▁nachzu	-9170
▁teilen	-9171
bereiche	-9172
▁complic	-9173
▁welchem	-9174
▁Erzeuger	-9175
▁accident	-9176
▁angewand	-9177
▁coherent	-9178
▁horizont	-9179
▁künftige	-9180
versorgung	-9181
▁Handlungs	-9182
▁additives	-9183
▁beschleun	-9184
▁Positionen	-9185
▁türkischen	-9186
▁Rindfleisch	-9187
sh	-9188
ipl	-9189
orf	-9190
schi	-9191
▁lar	-9192
▁lob	-9193
▁bann	-9194
▁room	-9195
Mittel	-9196
finanz	-9197
▁Japan	-9198
▁links	-9199
▁trust	-9200
prechen	-9201
▁easier	-9202
▁einsch	-9203
▁expert	-9204
▁starke	-9205
anderung	-9206
erkennen	-9207
willigen	-9208
▁Fischer	-9209
▁Während	-9210
▁endorse	-9211
▁heading	-9212
▁planned	-9213
▁treated	-9214
▁wachsen	-9215
▁accounts	-9216
▁granting	-9217
▁mehrfach	-9218
▁2000-2006	-9219
▁behaviour	-9220
▁materials	-9221
▁consistent	-9222
▁industries	-9223
▁mindestens	-9224
▁weitgehend	-9225
▁maintaining	-9226
zusammenarbeit	-9227
▁effectiveness	-9228
▁considerations	-9229
asm	-9230
sson	-9231
tert	-9232
▁Gal	-9233
▁inte	-9234
▁path	-9235
läufig	-9236
▁Boden	-9237
▁Nahen	-9238
▁bedau	-9239
▁seven	-9240
▁verwe	-9241
Mitglie	-9242
▁Anmerk	-9243
▁Guinea	-9244
▁innere	-9245
▁retain	-9246
indungen	-9247
oubtedly	-9248
▁Zeichen	-9249
▁holding	-9250
▁payment	-9251
▁Industry	-9252
▁Zeitplan	-9253
▁einstimm	-9254
▁herrscht	-9255
ätigkeiten	-9256
▁Südafrika	-9257
▁extensive	-9258
▁folgendes	-9259
▁obligator	-9260
▁Ereignisse	-9261
▁Fischereip	-9262
▁regulatory	-9263
▁Tschetschen	-9264
▁Einwanderung	-9265
▁Verringerung	-9266
▁strengthening	-9267
▁ursprünglichen	-9268
QU	-9269
IDS	-9270
ico	-9271
▁EP	-9272
▁Su	-9273
QUAL	-9274
emit	-9275
enty	-9276
omin	-9277
▁UNO	-9278
▁bit	-9279
▁sor	-9280
agung	-9281
annoy	-9282
▁Does	-9283
▁Mann	-9284
▁Once	-9285
▁arms	-9286
▁valu	-9287
▁wide	-9288
schung	-9289
sekret	-9290
▁EQUAL	-9291
▁Joint	-9292
▁label	-9293
leitung	-9294
rechten	-9295
zubauen	-9296
▁Lannoy	-9297
▁Schuld	-9298
▁beseit	-9299
▁dritte	-9300
▁figure	-9301
gelassen	-9302
▁Citizens	-9303
▁expected	-9304
▁früheren	-9305
▁zweitens	-9306
▁Buitenweg	-9307
▁equipment	-9308
▁Ausnahmere	-9309
▁background	-9310
▁wettbewerb	-9311
▁nachhaltige	-9312
▁Einrichtungen	-9313
▁Finanzierungs	-9314
▁38	-9315
dire	-9316
tung	-9317
igend	-9318
iment	-9319
mlich	-9320
ofern	-9321
▁Comp	-9322
▁Real	-9323
▁Zoll	-9324
▁rass	-9325
▁Clear	-9326
▁MEDIA	-9327
▁Paris	-9328
▁disag	-9329
▁drugs	-9330
▁exter	-9331
▁texts	-9332
▁touch	-9333
▁assume	-9334
▁discip	-9335
▁mutual	-9336
▁option	-9337
▁Lannoye	-9338
▁Russian	-9339
▁follows	-9340
▁Energien	-9341
▁gewünsch	-9342
▁globalen	-9343
▁insofern	-9344
▁intermod	-9345
▁jährlich	-9346
▁described	-9347
▁mechanism	-9348
▁mittleren	-9349
▁Programmen	-9350
▁Arbeitszeit	-9351
▁durchführen	-9352
▁umfassenden	-9353
verschmutzung	-9354
▁exploitation	-9355
ES	-9356
ills	-9357
llaf	-9358
strä	-9359
▁GVO	-9360
▁anz	-9361
▁sil	-9362
chmal	-9363
▁2010	-9364
▁Also	-9365
▁Bewe	-9366
▁Kenn	-9367
▁Vice	-9368
▁warm	-9369
▁Those	-9370
▁urban	-9371
ystemen	-9372
▁Sellaf	-9373
▁erhält	-9374
▁ferner	-9375
▁waters	-9376
economic	-9377
▁Another	-9378
▁Vorrang	-9379
▁penalty	-9380
▁wünsche	-9381
schaffung	-9382
▁Beschrän	-9383
▁Ursachen	-9384
▁financed	-9385
▁overcome	-9386
▁peaceful	-9387
Richtlinie	-9388
▁acknowled	-9389
▁gerichtet	-9390
▁processes	-9391
▁rechtzeit	-9392
▁Sellafield	-9393
▁beschränkt	-9394
▁constantly	-9395
▁politically	-9396
▁undoubtedly	-9397
▁Konsequenzen	-9398
▁militärischen	-9399
▁Unabhängigkeit	-9400
SV	-9401
hüt	-9402
uba	-9403
▁2.	-9404
▁Go	-9405
▁Sä	-9406
irms	-9407
▁Tob	-9408
▁bir	-9409
hilos	-9410
ierra	-9411
▁korr	-9412
▁mach	-9413
atible	-9414
fällig	-9415
regeln	-9416
resent	-9417
▁Schre	-9418
▁jener	-9419
▁multi	-9420
▁straf	-9421
▁volle	-9422
▁Kräfte	-9423
▁Sierra	-9424
▁deserv	-9425
▁großes	-9426
▁höchst	-9427
▁Militär	-9428
▁cigaret	-9429
▁harmful	-9430
▁schritt	-9431
▁Jungland	-9432
▁accompan	-9433
▁carrying	-9434
▁recognis	-9435
▁Aktionspl	-9436
▁Nachdruck	-9437
▁Ombudsman	-9438
▁governing	-9439
▁intervene	-9440
▁Verfassung	-9441
▁ausgesetzt	-9442
▁beigetragen	-9443
▁negotiating	-9444
wirtschaftung	-9445
▁satisfactory	-9446
▁festzustellen	-9447
AO	-9448
öd	-9449
oni	-9450
übt	-9451
üss	-9452
ifor	-9453
▁hän	-9454
▁Äuß	-9455
chnya	-9456
reift	-9457
ulner	-9458
worte	-9459
▁lauf	-9460
▁rich	-9461
▁russ	-9462
▁verz	-9463
essene	-9464
▁Arten	-9465
▁Pläne	-9466
▁talks	-9467
pplause	-9468
▁Bedarf	-9469
▁Ferner	-9470
▁courts	-9471
▁impose	-9472
▁secret	-9473
▁spread	-9474
▁stands	-9475
commerce	-9476
entlicht	-9477
▁gewährt	-9478
▁Chechnya	-9479
▁entweder	-9480
▁familiar	-9481
▁wirksame	-9482
▁Ablehnung	-9483
▁vergleich	-9484
▁anzunehmen	-9485
▁complement	-9486
▁diplomatic	-9487
▁überlassen	-9488
▁Modernisierung	-9489
▁ausgezeichnete	-9490
▁communications	-9491
II	-9492
adv	-9493
hört	-9494
ührt	-9495
▁Cor	-9496
▁sel	-9497
hängt	-9498
▁Alli	-9499
▁Asso	-9500
▁abol	-9501
▁dict	-9502
▁oral	-9503
▁uran	-9504
schluß	-9505
▁Frist	-9506
▁Klima	-9507
▁Reduz	-9508
▁envis	-9509
▁gutes	-9510
▁imper	-9511
▁sites	-9512
▁Signal	-9513
▁duties	-9514
▁oblige	-9515
▁vulner	-9516
▁wonach	-9517
eitigung	-9518
führungs	-9519
stitutes	-9520
▁Eastern	-9521
▁Journal	-9522
▁fifteen	-9523
▁minutes	-9524
▁sympath	-9525
ifications	-9526
▁continues	-9527
▁inclusion	-9528
▁Flüchtling	-9529
▁Presidents	-9530
▁Yugoslavia	-9531
▁bestätigen	-9532
▁beteiligen	-9533
▁bezeichnet	-9534
▁Jahrhundert	-9535
▁introducing	-9536
▁einheitliche	-9537
▁Verbesserungen	-9538
▁veröffentlicht	-9539
Ab	-9540
...	-9541
ama	-9542
pic	-9543
geht	-9544
olig	-9545
utin	-9546
warz	-9547
▁Dim	-9548
▁Mus	-9549
endet	-9550
▁Then	-9551
▁Wohn	-9552
▁diss	-9553
▁flag	-9554
abling	-9555
haltet	-9556
ikanen	-9557
ployed	-9558
▁alten	-9559
igkeits	-9560
klärung	-9561
olonial	-9562
pection	-9563
schafts	-9564
uptsäch	-9565
▁Männer	-9566
▁Paragu	-9567
▁approx	-9568
▁traged	-9569
Applause	-9570
▁Wissens	-9571
▁besorgt	-9572
▁debating	-9573
▁erlassen	-9574
vorschläge	-9575
▁Anpassung	-9576
▁contracts	-9577
▁vereinbar	-9578
▁verwiesen	-9579
▁beinhaltet	-9580
▁Zielsetzungen	-9581
▁supplementary	-9582
▁amerikanischen	-9583
▁Glaubwürdigkeit	-9584
60	-9585
eb	-9586
ras	-9587
umb	-9588
▁48	-9589
elte	-9590
eten	-9591
pakt	-9592
▁Mut	-9593
▁Que	-9594
▁She	-9595
based	-9596
denkt	-9597
itime	-9598
äumen	-9599
▁Roth	-9600
spunkt	-9601
▁Brenn	-9602
▁Leone	-9603
▁bemer	-9604
▁heavy	-9605
▁phase	-9606
Beifall	-9607
▁Bundes	-9608
▁friend	-9609
▁voranz	-9610
▁Anträge	-9611
▁Auftrag	-9612
▁Vorlage	-9613
▁details	-9614
▁genauso	-9615
▁justify	-9616
▁amending	-9617
▁chairman	-9618
▁compared	-9619
▁freedoms	-9620
▁gehalten	-9621
▁restruct	-9622
▁valuable	-9623
▁verdient	-9624
▁Praktiken	-9625
▁realistic	-9626
▁richtigen	-9627
▁constitute	-9628
▁represented	-9629
▁grundsätzlich	-9630
ibi	-9631
airo	-9632
fare	-9633
icks	-9634
itzt	-9635
lass	-9636
tion	-9637
▁Bol	-9638
▁hil	-9639
hagen	-9640
▁Here	-9641
▁ceil	-9642
▁felt	-9643
▁flow	-9644
▁gone	-9645
▁size	-9646
▁spät	-9647
ielten	-9648
ipping	-9649
märkte	-9650
soever	-9651
▁1999.	-9652
▁Malta	-9653
▁Netze	-9654
▁court	-9655
▁daily	-9656
▁entry	-9657
▁schäd	-9658
▁stake	-9659
3/2000)	-9660
comings	-9661
▁Höchst	-9662
▁abhäng	-9663
▁ergibt	-9664
▁played	-9665
▁Chinese	-9666
▁Clearly	-9667
▁Gesicht	-9668
▁Senkung	-9669
▁Zigaret	-9670
▁prepare	-9671
▁profits	-9672
▁solange	-9673
▁waiting	-9674
▁überaus	-9675
schätzung	-9676
▁millions	-9677
▁verstehe	-9678
behandlung	-9679
▁hauptsäch	-9680
▁satisfied	-9681
▁determined	-9682
▁maintained	-9683
▁Aktionsplan	-9684
▁Flüchtlings	-9685
▁Reduzierung	-9686
▁Katastrophen	-9687
▁unabhängigen	-9688
gesellschaften	-9689
▁Tschetschenien	-9690
▁Zusätzlichkeit	-9691
▁Internationalen	-9692
.,	-9693
▁Dr	-9694
▁lat	-9695
▁sad	-9696
▁ärm	-9697
isory	-9698
▁Kaka	-9699
▁Kore	-9700
▁Pact	-9701
▁news	-9702
machen	-9703
▁Ausbe	-9704
▁Costa	-9705
▁Defiz	-9706
▁Hafen	-9707
▁Umwel	-9708
▁dient	-9709
▁zuges	-9710
1/2000)	-9711
tragung	-9712
ältigen	-9713
▁Having	-9714
▁aftern	-9715
▁großem	-9716
▁offers	-9717
▁prosec	-9718
▁reicht	-9719
▁vision	-9720
stattung	-9721
▁Konsens	-9722
▁capable	-9723
▁massive	-9724
▁Jugoslaw	-9725
▁Herkunfts	-9726
▁folgenden	-9727
▁Generation	-9728
▁appreciate	-9729
▁inspection	-9730
▁Bürgerinnen	-9731
▁auseinander	-9732
▁einzusetzen	-9733
▁importantly	-9734
▁verteidigen	-9735
▁vorzunehmen	-9736
▁Vorsitzenden	-9737
▁shortcomings	-9738
Al	-9739
NG	-9740
este	-9741
▁Eur	-9742
▁Ost	-9743
▁Van	-9744
▁got	-9745
bargo	-9746
iegen	-9747
▁exec	-9748
astung	-9749
ensive	-9750
hütung	-9751
islang	-9752
lächen	-9753
▁Innov	-9754
▁Offen	-9755
▁chann	-9756
▁empfe	-9757
gegeben	-9758
lechter	-9759
▁Assozi	-9760
▁Fisher	-9761
▁befaßt	-9762
▁compon	-9763
▁vorhin	-9764
▁zahlen	-9765
beschäft	-9766
getragen	-9767
resident	-9768
▁Männern	-9769
▁Organis	-9770
▁Vorteil	-9771
▁appoint	-9772
▁dankbar	-9773
▁disease	-9774
▁equally	-9775
▁mistake	-9776
▁schafft	-9777
▁topical	-9778
▁protocol	-9779
gestellten	-9780
▁Einschrän	-9781
▁Secretary	-9782
▁Wohlstand	-9783
▁announced	-9784
▁referring	-9785
▁verlieren	-9786
▁Begründung	-9787
▁difficulty	-9788
▁preventing	-9789
▁processing	-9790
▁whatsoever	-9791
▁Problematik	-9792
▁wesentlicher	-9793
▁zusätzlichen	-9794
▁Gemeinschaftsin	-9795
▁Regierungschefs	-9796
▁ca	-9797
hner	-9798
quis	-9799
▁Get	-9800
bruch	-9801
▁Gang	-9802
▁Hung	-9803
▁Kurs	-9804
▁noon	-9805
▁stor	-9806
▁unre	-9807
bedarf	-9808
vertre	-9809
weilen	-9810
▁Würde	-9811
▁strik	-9812
▁Angola	-9813
▁charge	-9814
▁fassen	-9815
▁preced	-9816
▁refers	-9817
▁slight	-9818
schutzes	-9819
▁Despite	-9820
▁beraten	-9821
▁gelingt	-9822
▁Freedoms	-9823
▁changing	-9824
▁pensions	-9825
gleichheit	-9826
▁afternoon	-9827
▁geschützt	-9828
▁voluntary	-9829
▁Vertretern	-9830
▁eindeutige	-9831
▁verhindert	-9832
▁Palestinian	-9833
▁sovereignty	-9834
▁territorial	-9835
▁constitution	-9836
▁determination	-9837
ieß	-9838
ümm	-9839
▁42	-9840
▁Gu	-9841
atom	-9842
estic	-9843
onien	-9844
▁Pass	-9845
▁SMEs	-9846
▁crop	-9847
advant	-9848
necess	-9849
würdig	-9850
▁Women	-9851
▁derer	-9852
▁deter	-9853
▁domin	-9854
▁fried	-9855
▁lengt	-9856
▁spite	-9857
▁spoke	-9858
ausende	-9859
mäßigen	-9860
quality	-9861
▁Gelder	-9862
▁easily	-9863
▁sieben	-9864
▁sofern	-9865
▁surely	-9866
träglich	-9867
zutragen	-9868
▁Schluss	-9869
▁Sektors	-9870
▁Tunisia	-9871
▁careful	-9872
▁definit	-9873
▁relativ	-9874
▁release	-9875
▁running	-9876
▁section	-9877
▁smoking	-9878
▁schlecht	-9879
▁zugleich	-9880
▁economies	-9881
▁ministers	-9882
herstellung	-9883
▁contradict	-9884
▁innovation	-9885
▁Abschaffung	-9886
▁Genehmigung	-9887
▁angemessene	-9888
▁menschliche	-9889
▁considerably	-9890
▁expectations	-9891
▁additionality	-9892
mä	-9893
ads	-9894
jud	-9895
▁45	-9896
▁5,	-9897
irac	-9898
krit	-9899
mien	-9900
ruit	-9901
▁Akt	-9902
▁End	-9903
▁Gut	-9904
▁Imm	-9905
▁Lie	-9906
▁Sum	-9907
▁Syr	-9908
▁hem	-9909
einen	-9910
macht	-9911
orous	-9912
tsein	-9913
▁Free	-9914
▁Peru	-9915
▁beob	-9916
▁calc	-9917
▁kept	-9918
▁warn	-9919
aching	-9920
tering	-9921
uinely	-9922
wachst	-9923
▁Tunes	-9924
▁black	-9925
▁green	-9926
6/2000)	-9927
schnitt	-9928
vergenz	-9929
▁Mutter	-9930
▁danach	-9931
▁issued	-9932
▁Gericht	-9933
▁Staates	-9934
ikanische	-9935
vereinbar	-9936
▁Democrat	-9937
▁interpre	-9938
▁kürzlich	-9939
▁spending	-9940
▁Luxemburg	-9941
▁disadvant	-9942
▁genuinely	-9943
▁judgement	-9944
▁identified	-9945
▁intentions	-9946
▁phenomenon	-9947
▁teilnehmen	-9948
itätsprinzip	-9949
▁Kooperation	-9950
▁Todesstrafe	-9951
▁humanitären	-9952
▁wettbewerbs	-9953
▁independence	-9954
bol	-9955
see	-9956
anst	-9957
emin	-9958
▁Moz	-9959
▁Ruß	-9960
bauen	-9961
ängst	-9962
▁Nutz	-9963
▁sinc	-9964
▁verf	-9965
▁Erwer	-9966
▁Marok	-9967
▁deals	-9968
▁weist	-9969
ouverän	-9970
▁distin	-9971
▁genehm	-9972
▁nation	-9973
▁please	-9974
▁seiten	-9975
▁verfüg	-9976
örderung	-9977
▁Treffen	-9978
▁bemühen	-9979
▁percent	-9980
▁poorest	-9981
▁wollten	-9982
ornograph	-9983
▁befindet	-9984
▁register	-9985
▁stärkere	-9986
▁unnecess	-9987
▁Schlüssel	-9988
▁auswirken	-9989
▁correctly	-9990
▁primarily	-9991
▁Konvergenz	-9992
▁auffordern	-9993
▁Rechtsstaat	-9994
▁beantwortet	-9995
▁encouraging	-9996
▁unanimously	-9997
▁entscheidende	-9998
▁ausgeschlossen	-9999
48	-10000
5­	-10001
IT	-10002
hme	-10003
▁Bo	-10004
▁inf	-10005
▁koh	-10006
▁pie	-10007
▁zus	-10008
stuff	-10009
▁Diam	-10010
▁enor	-10011
▁zone	-10012
gebaut	-10013
itzung	-10014
modell	-10015
ranken	-10016
urning	-10017
▁Prote	-10018
▁alarm	-10019
▁built	-10020
▁goals	-10021
▁hence	-10022
▁shift	-10023
▁stell	-10024
▁pursue	-10025
▁sports	-10026
hilosoph	-10027
kontroll	-10028
▁Allianz	-10029
▁Schweiz	-10030
▁centres	-10031
▁überprü	-10032
chanismus	-10033
▁Nichtreg	-10034
▁Paraguay	-10035
▁airports	-10036
▁collabor	-10037
▁incident	-10038
▁parallel	-10039
▁Fisheries	-10040
▁Represent	-10041
▁schließen	-10042
▁schneller	-10043
▁uncertain	-10044
▁unmöglich	-10045
▁wirkliche	-10046
▁Ausbeutung	-10047
▁Hersteller	-10048
▁Zigaretten	-10049
▁collective	-10050
▁Grundsätzen	-10051
▁conservation	-10052
▁Subsidiarität	-10053
▁manufacturers	-10054
▁Nichtregierungs	-10055
coa	-10056
nex	-10057
pay	-10058
ric	-10059
▁Sy	-10060
ails	-10061
mann	-10062
ürze	-10063
▁21.	-10064
▁Alt	-10065
▁Byr	-10066
▁dep	-10067
▁fas	-10068
▁pol	-10069
▁tre	-10070
emost	-10071
ulate	-10072
▁Wird	-10073
▁host	-10074
▁phys	-10075
akzept	-10076
räumen	-10077
ursday	-10078
▁Tobin	-10079
▁Where	-10080
▁spend	-10081
▁Atlant	-10082
▁Labour	-10083
▁adjust	-10084
schaffen	-10085
▁Dialogs	-10086
▁Fragest	-10087
▁vessels	-10088
▁Debatten	-10089
▁Liikanen	-10090
▁Thursday	-10091
▁effektiv	-10092
▁fünfzehn	-10093
▁Gespräche	-10094
▁Parlamente	-10095
▁bestehende	-10096
▁ethnischen	-10097
▁Beseitigung	-10098
▁Generaldire	-10099
An	-10100
arz	-10101
lös	-10102
▁Mü	-10103
ilen	-10104
izin	-10105
kund	-10106
sprü	-10107
stoß	-10108
ätze	-10109
▁Dut	-10110
▁pet	-10111
istan	-10112
sider	-10113
▁Bird	-10114
▁Dien	-10115
▁Gese	-10116
▁Tage	-10117
▁Vize	-10118
▁meat	-10119
iforis	-10120
ighten	-10121
reiber	-10122
wohner	-10123
▁Bewer	-10124
▁Versp	-10125
▁absen	-10126
▁anbel	-10127
▁engag	-10128
▁freie	-10129
anträge	-10130
ategien	-10131
gebiete	-10132
▁2000/2	-10133
▁Donner	-10134
▁Energy	-10135
▁Klonen	-10136
▁Maaten	-10137
▁Preise	-10138
▁Sports	-10139
▁acting	-10140
▁betrie	-10141
▁incomp	-10142
▁Belgium	-10143
▁Morocco	-10144
▁Stunden	-10145
▁prosper	-10146
▁uranium	-10147
zustimmen	-10148
▁Souverän	-10149
▁category	-10150
▁foremost	-10151
▁Katiforis	-10152
▁anbelangt	-10153
▁determine	-10154
▁operating	-10155
▁membership	-10156
▁strategies	-10157
▁verursacht	-10158
▁vorstellen	-10159
▁vulnerable	-10160
▁Ausrichtung	-10161
▁Friedenspro	-10162
▁bekanntlich	-10163
▁electricity	-10164
▁vorhandenen	-10165
▁Formulierung	-10166
▁abschließend	-10167
▁investigation	-10168
Re	-10169
ato	-10170
ell	-10171
erte	-10172
änen	-10173
▁sal	-10174
deten	-10175
▁Fach	-10176
▁stre	-10177
▁town	-10178
▁Byrne	-10179
▁Geist	-10180
▁ships	-10181
▁zivil	-10182
9/2000)	-10183
▁Küsten	-10184
▁Mozamb	-10185
▁credit	-10186
▁keinem	-10187
▁restor	-10188
▁Gipfelt	-10189
▁Tourism	-10190
▁affects	-10191
▁disappe	-10192
▁oftmals	-10193
▁Aspekten	-10194
▁erteilen	-10195
▁suffered	-10196
▁ziemlich	-10197
mitglieder	-10198
▁Fernsehen	-10199
▁Tourismus	-10200
▁Tradition	-10201
▁britische	-10202
▁dargelegt	-10203
▁inflation	-10204
▁Employment	-10205
▁categories	-10206
▁kulturelle	-10207
▁relatively	-10208
▁Cooperation	-10209
▁Verbreitung	-10210
▁audiovisual	-10211
▁finanzieren	-10212
▁Unternehmens	-10213
▁interessiert	-10214
▁multilateral	-10215
▁Kommunikation	-10216
▁Vizepräsident	-10217
▁afrikanischen	-10218
▁hauptsächlich	-10219
▁Gesellschaften	-10220
▁Übereinkommens	-10221
▁Stabilitätspakt	-10222
ses	-10223
▁Bi	-10224
▁CF	-10225
▁Pa	-10226
irma	-10227
ählt	-10228
▁Kan	-10229
▁Mug	-10230
▁Wäl	-10231
ffect	-10232
inger	-10233
▁Roma	-10234
▁glad	-10235
▁sets	-10236
▁vast	-10237
▁went	-10238
▁Laufe	-10239
▁While	-10240
▁breit	-10241
▁echte	-10242
▁pleas	-10243
▁roads	-10244
▁spect	-10245
▁tried	-10246
▁users	-10247
rechter	-10248
▁Förder	-10249
▁Mangel	-10250
▁couple	-10251
▁plants	-10252
▁soweit	-10253
sekretär	-10254
sprachen	-10255
▁Einheit	-10256
▁evident	-10257
▁federal	-10258
▁helping	-10259
▁rapidly	-10260
▁targets	-10261
hthalates	-10262
▁Erschein	-10263
▁Experten	-10264
▁Territor	-10265
▁Wahrheit	-10266
▁actively	-10267
▁facility	-10268
▁genügend	-10269
▁obtained	-10270
▁vorliegt	-10271
▁confident	-10272
▁erläutern	-10273
▁Minderheit	-10274
▁ecological	-10275
▁ehemaligen	-10276
▁humanitäre	-10277
▁keinesfalls	-10278
beschäftigung	-10279
▁organisierten	-10280
▁Gewährleistung	-10281
ane	-10282
het	-10283
igu	-10284
pet	-10285
▁EL	-10286
ahme	-10287
wers	-10288
▁hyp	-10289
itzer	-10290
▁EURO	-10291
▁Vier	-10292
ancing	-10293
betrie	-10294
▁arres	-10295
▁cocoa	-10296
▁consc	-10297
▁hopes	-10298
▁motiv	-10299
▁mußte	-10300
▁south	-10301
▁Chirac	-10302
▁Gerade	-10303
▁Ziffer	-10304
▁echten	-10305
▁remote	-10306
otential	-10307
ältigung	-10308
▁Ausgang	-10309
▁Prozent	-10310
▁Schulen	-10311
▁Seattle	-10312
▁ausgest	-10313
▁bearing	-10314
▁niedrig	-10315
▁Alliance	-10316
▁deserves	-10317
▁domestic	-10318
▁geregelt	-10319
▁gewinnen	-10320
▁learning	-10321
▁negativen	-10322
▁obstacles	-10323
▁Befugnisse	-10324
▁Donnerstag	-10325
▁Management	-10326
▁Fragestunde	-10327
▁beschließen	-10328
▁distributed	-10329
▁necessarily	-10330
▁preparation	-10331
▁schwedische	-10332
▁Investitions	-10333
▁neighbouring	-10334
▁Sozialpolitik	-10335
11	-10336
IN	-10337
rt	-10338
Kon	-10339
oto	-10340
zif	-10341
zio	-10342
üge	-10343
▁Det	-10344
▁Frü	-10345
▁Hab	-10346
▁Hul	-10347
▁Opp	-10348
mosph	-10349
ugust	-10350
▁Ohne	-10351
▁Präs	-10352
▁ausl	-10353
hängen	-10354
ürzung	-10355
▁deple	-10356
trieben	-10357
▁Bolkes	-10358
▁Dollar	-10359
▁Ethiop	-10360
▁Export	-10361
▁Lasten	-10362
▁Volkes	-10363
▁choose	-10364
▁island	-10365
▁sensib	-10366
▁Abänder	-10367
▁Euratom	-10368
▁article	-10369
▁becomes	-10370
▁finding	-10371
▁geehrte	-10372
▁replace	-10373
▁welfare	-10374
▁Faktoren	-10375
▁einzelne	-10376
▁identify	-10377
▁manchmal	-10378
▁moreover	-10379
▁Interoper	-10380
▁Wallström	-10381
▁aufnehmen	-10382
▁competent	-10383
▁fishermen	-10384
▁Mitwirkung	-10385
▁konsequent	-10386
▁Einstellung	-10387
▁Situationen	-10388
▁acknowledge	-10389
▁beantworten	-10390
▁langfristig	-10391
▁rechtzeitig	-10392
▁verurteilen	-10393
".	-10394
%,	-10395
roh	-10396
ski	-10397
▁4.	-10398
ahrt	-10399
buch	-10400
fäll	-10401
klar	-10402
▁pal	-10403
▁scr	-10404
ariat	-10405
läuft	-10406
ziert	-10407
▁getr	-10408
freund	-10409
▁Hilfs	-10410
▁beruf	-10411
▁günst	-10412
▁sorry	-10413
▁zumal	-10414
fristig	-10415
related	-10416
wachsen	-10417
weitung	-10418
▁August	-10419
▁Freude	-10420
▁debatt	-10421
▁fields	-10422
▁inhalt	-10423
▁seeing	-10424
▁taxpay	-10425
regionen	-10426
▁Gewicht	-10427
▁erstens	-10428
▁obliged	-10429
▁primary	-10430
▁welches	-10431
▁ärmsten	-10432
▁Beschwer	-10433
▁Material	-10434
▁drafting	-10435
▁schlagen	-10436
▁trotzdem	-10437
antwortung	-10438
▁violation	-10439
▁Bolkestein	-10440
▁angewendet	-10441
▁ansprechen	-10442
▁gesundheit	-10443
▁jedenfalls	-10444
▁understood	-10445
▁Arbeitsplatz	-10446
▁Bereitschaft	-10447
▁nachhaltigen	-10448
▁verabschieden	-10449
WG	-10450
sy	-10451
ped	-10452
urt	-10453
▁Sl	-10454
aill	-10455
atal	-10456
imor	-10457
▁unn	-10458
gigen	-10459
▁Krie	-10460
▁canc	-10461
ancial	-10462
annehm	-10463
chelon	-10464
ieller	-10465
mäßige	-10466
ukture	-10467
▁Klein	-10468
▁Mazed	-10469
▁Neben	-10470
▁relie	-10471
2/2000)	-10472
▁korrig	-10473
▁privat	-10474
Mitglied	-10475
ausgaben	-10476
ordnungs	-10477
ängerung	-10478
▁Minuten	-10479
▁Zustand	-10480
▁absence	-10481
▁erhoben	-10482
▁largely	-10483
▁motions	-10484
▁numbers	-10485
▁Betracht	-10486
▁mögliche	-10487
▁respects	-10488
lichkeiten	-10489
▁basically	-10490
▁gezwungen	-10491
▁resulting	-10492
zuschließen	-10493
▁einstimmig	-10494
▁phthalates	-10495
▁wiederholt	-10496
verletzungen	-10497
▁Herstellung	-10498
▁coordinated	-10499
▁unterbrochen	-10500
▁Menschenhandel	-10501
▁wirtschaftlich	-10502
upp	-10503
▁Lo	-10504
otti	-10505
plit	-10506
▁Fil	-10507
▁müs	-10508
elled	-10509
emann	-10510
otten	-10511
reite	-10512
▁Dipl	-10513
▁Gale	-10514
▁Haug	-10515
▁Infl	-10516
▁Lien	-10517
▁Mold	-10518
▁forg	-10519
▁sout	-10520
Christ	-10521
▁count	-10522
▁eight	-10523
▁immen	-10524
▁leads	-10525
▁reass	-10526
▁voice	-10527
ußtsein	-10528
▁Mugabe	-10529
▁beruht	-10530
▁exceed	-10531
▁firmly	-10532
▁leiten	-10533
▁marine	-10534
▁solely	-10535
behörden	-10536
gefunden	-10537
▁answers	-10538
▁autonom	-10539
▁erleben	-10540
▁feeling	-10541
▁writing	-10542
▁Deswegen	-10543
▁Schreyer	-10544
▁Tunesien	-10545
▁erwähnen	-10546
▁verschär	-10547
▁Dokumente	-10548
▁Flughäfen	-10549
▁Identität	-10550
▁Standards	-10551
▁gradually	-10552
▁Ausweitung	-10553
▁Jahrhunder	-10554
▁Mozambique	-10555
▁erarbeiten	-10556
▁Insbesondere	-10557
▁Jugendlichen	-10558
▁kontrolliert	-10559
▁Funktionieren	-10560
▁uneingeschränkt	-10561
bal	-10562
▁Sü	-10563
istr	-10564
rise	-10565
vert	-10566
deckt	-10567
idium	-10568
▁ELDR	-10569
▁Effe	-10570
▁GMOs	-10571
▁Gebä	-10572
▁Gelt	-10573
▁bomb	-10574
▁gepl	-10575
▁surv	-10576
artige	-10577
atoren	-10578
▁Dauer	-10579
▁Nacht	-10580
▁super	-10581
7/2000)	-10582
8/2000)	-10583
Bericht	-10584
▁During	-10585
▁einzig	-10586
▁Galeote	-10587
▁Inkraft	-10588
▁friends	-10589
▁gebeten	-10590
▁Öffnung	-10591
▁attempts	-10592
▁southern	-10593
▁zurückzu	-10594
gestaltung	-10595
▁Ausnahmen	-10596
▁Lienemann	-10597
▁Projekten	-10598
▁Stability	-10599
▁angewandt	-10600
▁antworten	-10601
▁decentral	-10602
▁gefährdet	-10603
erechtigkeit	-10604
▁Parlamentar	-10605
▁Unionsbürger	-10606
▁Zusammenhalt	-10607
▁incineration	-10608
▁Außenminister	-10609
▁Gleichstellung	-10610
▁bereitgestellt	-10611
▁constitutional	-10612
▁Dienstleistungs	-10613
ley	-10614
grad	-10615
lern	-10616
▁Arg	-10617
▁Sim	-10618
▁mal	-10619
▁Ärz	-10620
▁Dell	-10621
▁Kann	-10622
▁Städ	-10623
▁inqu	-10624
▁Great	-10625
▁quote	-10626
▁zuvor	-10627
ifelong	-10628
▁Straße	-10629
▁kosten	-10630
▁opened	-10631
▁sphere	-10632
▁tariff	-10633
ifiziert	-10634
▁Methode	-10635
▁Respekt	-10636
▁journal	-10637
▁reichen	-10638
ufficient	-10639
▁abhängig	-10640
▁begonnen	-10641
▁erwiesen	-10642
▁shipping	-10643
▁umsetzen	-10644
▁veränder	-10645
▁zulassen	-10646
▁Präsidium	-10647
▁illegalen	-10648
beziehungen	-10649
▁Steuerzahl	-10650
▁denjenigen	-10651
▁sorgfältig	-10652
▁spanischen	-10653
▁verstärkte	-10654
▁einzuführen	-10655
▁politisches	-10656
▁applications	-10657
▁associations	-10658
▁entscheidend	-10659
▁jurisdiction	-10660
▁presentation	-10661
▁unterbreiten	-10662
▁Währungsunion	-10663
EWG	-10664
dez	-10665
pla	-10666
▁jo	-10667
akes	-10668
erre	-10669
ilot	-10670
meid	-10671
omet	-10672
embow	-10673
thand	-10674
▁ICAO	-10675
▁Lang	-10676
▁Uran	-10677
▁Wähl	-10678
▁barr	-10679
▁nine	-10680
▁pict	-10681
▁prel	-10682
▁spür	-10683
▁west	-10684
gently	-10685
itably	-10686
stuffs	-10687
▁Barón	-10688
▁Maced	-10689
▁Menge	-10690
▁Platz	-10691
▁kinds	-10692
▁trend	-10693
anische	-10694
fachung	-10695
▁Anwend	-10696
▁Betrag	-10697
▁Gewäss	-10698
▁geleis	-10699
▁oppose	-10700
▁unfair	-10701
▁widmen	-10702
▁Belgien	-10703
▁Fußball	-10704
▁Marokko	-10705
▁charges	-10706
▁imagine	-10707
▁keeping	-10708
katastrop	-10709
openhagen	-10710
▁inakzept	-10711
▁vertritt	-10712
▁confusion	-10713
▁gestatten	-10714
▁pornograph	-10715
▁ultimately	-10716
schreitenden	-10717
▁Mechanismen	-10718
▁vorbereitet	-10719
▁Souveränität	-10720
▁angenommenen	-10721
▁interpretation	-10722
8/	-10723
oo	-10724
ubr	-10725
ähe	-10726
▁3.	-10727
▁6,	-10728
funk	-10729
▁20.	-10730
▁wod	-10731
ients	-10732
irect	-10733
▁AIDS	-10734
▁Jarz	-10735
▁enth	-10736
ieties	-10737
isemit	-10738
▁Monat	-10739
▁aband	-10740
▁behin	-10741
▁trial	-10742
fertigt	-10743
opoulos	-10744
orgungs	-10745
▁Mosamb	-10746
▁anstre	-10747
▁checks	-10748
▁conven	-10749
▁ergänz	-10750
▁erhöht	-10751
▁places	-10752
embowski	-10753
everkehr	-10754
haushalt	-10755
jährigen	-10756
ventions	-10757
▁Fernseh	-10758
▁advance	-10759
▁bislang	-10760
▁corrupt	-10761
▁entered	-10762
▁wodurch	-10763
President	-10764
istischer	-10765
▁Klarheit	-10766
▁Welthand	-10767
▁election	-10768
▁jegliche	-10769
▁students	-10770
▁surround	-10771
▁abgegeben	-10772
▁behaupten	-10773
▁producing	-10774
▁verlassen	-10775
▁achievement	-10776
▁Durchsetzung	-10777
▁Jarzembowski	-10778
▁Verlängerung	-10779
▁kontrollieren	-10780
▁restructuring	-10781
▁Gemeinschaften	-10782
▁33	-10783
▁lä	-10784
ague	-10785
deck	-10786
iced	-10787
ikas	-10788
▁Bau	-10789
▁EVP	-10790
▁Fer	-10791
▁TSE	-10792
icans	-10793
iefst	-10794
▁insp	-10795
▁ster	-10796
▁ther	-10797
▁vorn	-10798
▁Allow	-10799
▁Dutch	-10800
▁Jeder	-10801
▁Kyoto	-10802
▁match	-10803
▁nötig	-10804
oldaten	-10805
stoffen	-10806
▁Eigent	-10807
▁double	-10808
▁racist	-10809
▁Bekannt	-10810
▁Schwarz	-10811
▁deserve	-10812
▁detaill	-10813
▁entfern	-10814
▁geraten	-10815
▁imports	-10816
▁install	-10817
▁langsam	-10818
▁starken	-10819
▁Schutzes	-10820
▁benötigt	-10821
▁declared	-10822
▁prelimin	-10823
▁unannehm	-10824
▁urgently	-10825
▁yourself	-10826
▁Allgemein	-10827
▁Christian	-10828
▁Mobilität	-10829
▁erwähnten	-10830
▁Leistungen	-10831
▁befürworte	-10832
▁überprüfen	-10833
▁Hindernisse	-10834
▁Ministerrat	-10835
▁Technologie	-10836
▁educational	-10837
▁examination	-10838
▁Unsicherheit	-10839
▁ausgerichtet	-10840
▁observations	-10841
▁schrittweise	-10842
▁Etikettierung	-10843
ieg	-10844
pir	-10845
▁34	-10846
▁36	-10847
▁Op	-10848
eine	-10849
owen	-10850
züge	-10851
▁Mod	-10852
▁mak	-10853
▁mur	-10854
cting	-10855
fraid	-10856
▁Dire	-10857
▁core	-10858
▁legt	-10859
fangen	-10860
iberal	-10861
streck	-10862
▁Kürze	-10863
▁Tiere	-10864
▁habit	-10865
gencies	-10866
ivalent	-10867
▁Phthal	-10868
▁Verurs	-10869
▁afraid	-10870
▁erlebt	-10871
▁hinweg	-10872
▁kommer	-10873
▁langen	-10874
▁proved	-10875
▁punish	-10876
▁weight	-10877
▁Bananen	-10878
▁Rußland	-10879
▁Studien	-10880
▁debated	-10881
▁doctors	-10882
▁intoler	-10883
austausch	-10884
▁Aufgrund	-10885
▁Methoden	-10886
▁bedauere	-10887
ressourcen	-10888
▁Gestatten	-10889
▁confirmed	-10890
▁verändert	-10891
▁controvers	-10892
▁regionaler	-10893
▁revolution	-10894
▁enthaltenen	-10895
▁preliminary	-10896
▁unnecessary	-10897
▁Binnenmarkts	-10898
▁rechtfertigen	-10899
▁tatsächlichen	-10900
▁unterzeichnet	-10901
▁entscheidenden	-10902
Der	-10903
emm	-10904
eply	-10905
proz	-10906
utor	-10907
▁Mac	-10908
▁cop	-10909
▁lic	-10910
▁tie	-10911
▁zer	-10912
5-017	-10913
aries	-10914
isses	-10915
osing	-10916
overy	-10917
▁2004	-10918
▁Atom	-10919
▁fuel	-10920
▁infr	-10921
▁kons	-10922
▁stim	-10923
▁wann	-10924
etzten	-10925
grenze	-10926
normen	-10927
stream	-10928
wertet	-10929
▁Bitte	-10930
▁Rural	-10931
▁Wales	-10932
▁hängt	-10933
▁werte	-10934
rechung	-10935
▁Doping	-10936
▁Renten	-10937
▁allows	-10938
▁forest	-10939
▁laufen	-10940
▁Äthiop	-10941
wachstum	-10942
▁abgeben	-10943
▁höchste	-10944
▁schreck	-10945
▁tragedy	-10946
▁wording	-10947
▁Garantie	-10948
▁excluded	-10949
▁schließe	-10950
▁verletzt	-10951
▁zutiefst	-10952
politische	-10953
▁Mißbrauch	-10954
▁explained	-10955
▁recycling	-10956
▁verwenden	-10957
▁applicable	-10958
▁bewältigen	-10959
▁gearbeitet	-10960
▁prosperity	-10961
▁Beteiligten	-10962
▁Jugoslawien	-10963
▁ausführlich	-10964
▁complicated	-10965
▁essentially	-10966
▁eigentlichen	-10967
▁gegenwärtige	-10968
▁significance	-10969
▁Representative	-10970
▁unterschiedlich	-10971
5­0	-10972
gie	-10973
lls	-10974
achs	-10975
jing	-10976
rain	-10977
ärkt	-10978
▁Hal	-10979
▁Ori	-10980
istet	-10981
▁Schm	-10982
▁laut	-10983
▁reve	-10984
▁trib	-10985
▁unab	-10986
▁Komit	-10987
▁Spann	-10988
▁nehme	-10989
▁quota	-10990
▁worst	-10991
zusehen	-10992
ährungs	-10993
▁Birdal	-10994
▁Fakten	-10995
▁Urteil	-10996
▁Wandel	-10997
▁deeply	-10998
▁höhere	-10999
▁mußten	-11000
▁steuer	-11001
▁tragic	-11002
▁zuläss	-11003
bewerber	-11004
▁Aussage	-11005
▁Beijing	-11006
▁English	-11007
▁Indones	-11008
▁Profess	-11009
▁customs	-11010
▁himself	-11011
▁partner	-11012
▁radical	-11013
▁Beiträge	-11014
▁deadline	-11015
▁depleted	-11016
▁erwartet	-11017
▁examined	-11018
▁gewähren	-11019
▁indirect	-11020
▁intensiv	-11021
▁occurred	-11022
▁welcomed	-11023
▁Kontinent	-11024
▁Prozesses	-11025
▁condemned	-11026
▁festlegen	-11027
wirklichung	-11028
▁Mazedonien	-11029
▁Verhaltens	-11030
▁statistics	-11031
▁zugelassen	-11032
▁Wirksamkeit	-11033
▁supervision	-11034
▁spezifischen	-11035
▁Einwanderungs	-11036
▁italienischen	-11037
▁Zuständigkeiten	-11038
▁environmentally	-11039
EL	-11040
dex	-11041
ela	-11042
ère	-11043
▁7,	-11044
aren	-11045
bald	-11046
bart	-11047
esty	-11048
▁erl	-11049
▁maß	-11050
ahnen	-11051
astet	-11052
hetor	-11053
▁Buch	-11054
▁Korr	-11055
▁Wass	-11056
▁alte	-11057
▁neun	-11058
▁sach	-11059
▁trop	-11060
irable	-11061
ointed	-11062
▁Schro	-11063
▁armen	-11064
▁lists	-11065
▁north	-11066
▁obser	-11067
ischung	-11068
prozess	-11069
▁advice	-11070
▁lernen	-11071
▁nearly	-11072
ierender	-11073
sprogram	-11074
▁Verschm	-11075
▁Wichtig	-11076
▁abgesch	-11077
▁kämpfen	-11078
▁zweiter	-11079
▁besitzen	-11080
▁constitu	-11081
▁Argumente	-11082
▁Qualitäts	-11083
▁Teilnahme	-11084
▁definiert	-11085
▁deutschen	-11086
▁suspended	-11087
▁eingeräumt	-11088
▁erscheinen	-11089
▁threatened	-11090
▁Arbeitgeber	-11091
▁Komitologie	-11092
▁endgültigen	-11093
schlossenheit	-11094
▁entwickelten	-11095
▁erneuerbaren	-11096
▁griechischen	-11097
▁Gipfeltreffen	-11098
▁Junglandwirte	-11099
▁clarification	-11100
▁stattgefunden	-11101
▁Bereitstellung	-11102
▁vorangegangenen	-11103
bl	-11104
bil	-11105
ops	-11106
oral	-11107
sych	-11108
tinu	-11109
▁Erg	-11110
▁PSE	-11111
▁Zun	-11112
▁arg	-11113
▁lag	-11114
▁züg	-11115
board	-11116
▁Auge	-11117
▁Bran	-11118
▁Cres	-11119
▁NAFO	-11120
▁doll	-11121
▁drän	-11122
▁elig	-11123
▁fert	-11124
▁none	-11125
niveau	-11126
preise	-11127
terung	-11128
ughter	-11129
zenten	-11130
▁Anhör	-11131
▁angep	-11132
▁essen	-11133
▁house	-11134
▁irreg	-11135
▁persu	-11136
▁trace	-11137
▁versp	-11138
4/2000)	-11139
▁Commun	-11140
▁Mängel	-11141
▁Orient	-11142
▁Tenden	-11143
▁Theato	-11144
▁clause	-11145
▁fehlen	-11146
▁gelegt	-11147
▁stocks	-11148
▁twenty	-11149
▁vertre	-11150
▁zwangs	-11151
pectives	-11152
▁Auswahl	-11153
▁Stimmen	-11154
▁beruhen	-11155
▁heutige	-11156
▁medical	-11157
▁offenen	-11158
prozesses	-11159
▁External	-11160
▁Mosambik	-11161
▁Randlage	-11162
▁erwähnte	-11163
▁getragen	-11164
▁powerful	-11165
Initiative	-11166
▁Zahlungen	-11167
▁stärksten	-11168
▁widerspie	-11169
▁Erreichung	-11170
▁Gestaltung	-11171
▁monopolies	-11172
▁Versammlung	-11173
▁erleichtern	-11174
▁kompliziert	-11175
▁übermitteln	-11176
ästinensischen	-11177
EF	-11178
EEC	-11179
▁Du	-11180
asen	-11181
dien	-11182
feit	-11183
iler	-11184
wohn	-11185
ässt	-11186
▁Ank	-11187
▁Sup	-11188
▁Tex	-11189
ielte	-11190
inary	-11191
krieg	-11192
urate	-11193
ünfte	-11194
▁Both	-11195
▁Büro	-11196
▁Nein	-11197
▁Rubr	-11198
▁dopp	-11199
gelöst	-11200
▁1998.	-11201
▁Raums	-11202
▁Risik	-11203
▁Teile	-11204
▁knapp	-11205
▁veget	-11206
amerika	-11207
verfolg	-11208
▁Darauf	-11209
▁Dingen	-11210
▁abgere	-11211
▁lieber	-11212
▁Europar	-11213
▁Unserer	-11214
▁causing	-11215
▁intelle	-11216
▁propert	-11217
▁someone	-11218
standards	-11219
▁Bewerber	-11220
▁Verbrech	-11221
▁ablehnen	-11222
▁geeignet	-11223
▁passiert	-11224
▁regarded	-11225
▁soldiers	-11226
▁sozialer	-11227
▁vorsieht	-11228
demokraten	-11229
▁Konflikte	-11230
▁affecting	-11231
▁gebilligt	-11232
▁herrschen	-11233
▁Demokraten	-11234
▁gefährlich	-11235
▁respective	-11236
▁Aufenthalts	-11237
▁Verbrauchern	-11238
▁guaranteeing	-11239
▁militärische	-11240
▁Verwirklichung	-11241
▁sichergestellt	-11242
▁Entschließungen	-11243
Med	-11244
ijs	-11245
opf	-11246
▁GD	-11247
ades	-11248
cker	-11249
wirt	-11250
▁Sri	-11251
debat	-11252
huber	-11253
ießen	-11254
utive	-11255
▁Amts	-11256
▁Anre	-11257
▁Four	-11258
sebene	-11259
staats	-11260
▁Deleg	-11261
▁Given	-11262
▁psych	-11263
▁tests	-11264
essions	-11265
istance	-11266
itoring	-11267
▁Abhäng	-11268
▁Berufs	-11269
▁Crespo	-11270
▁Ergänz	-11271
▁Hulten	-11272
▁bildet	-11273
▁claims	-11274
▁crises	-11275
▁einzur	-11276
▁latest	-11277
▁refuse	-11278
undering	-11279
▁Special	-11280
▁Zunahme	-11281
▁greatly	-11282
▁preserv	-11283
▁smaller	-11284
▁weitaus	-11285
▁Existenz	-11286
▁begrenzt	-11287
▁pursuant	-11288
▁demanding	-11289
▁irregular	-11290
▁religious	-11291
▁strukture	-11292
sbekämpfung	-11293
▁rechtliche	-11294
▁Alternative	-11295
▁Einwanderer	-11296
▁citizenship	-11297
▁gemeinsames	-11298
▁unzureichend	-11299
▁Assoziierungs	-11300
▁diesbezüglichen	-11301
ada	-11302
dok	-11303
lym	-11304
osp	-11305
put	-11306
hole	-11307
▁400	-11308
▁Far	-11309
▁Fij	-11310
▁Sal	-11311
▁Sav	-11312
5-016	-11313
apeut	-11314
edter	-11315
ibiot	-11316
schul	-11317
▁Camp	-11318
▁Ehre	-11319
▁Fang	-11320
▁Noch	-11321
▁gehe	-11322
▁reun	-11323
1/2000	-11324
enness	-11325
erusal	-11326
▁Under	-11327
▁drink	-11328
▁fores	-11329
▁mitge	-11330
▁penal	-11331
▁shame	-11332
weisung	-11333
▁Umgang	-11334
▁indire	-11335
▁transe	-11336
▁umfaßt	-11337
erusalem	-11338
gebieten	-11339
▁Annäher	-11340
▁Kontakt	-11341
▁Ethiopia	-11342
▁bedanken	-11343
▁explicit	-11344
▁football	-11345
▁hingegen	-11346
▁thanking	-11347
▁zentrale	-11348
▁extending	-11349
▁geeignete	-11350
▁personnel	-11351
▁prospects	-11352
▁reflected	-11353
▁reiterate	-11354
▁Protokolls	-11355
▁Schroedter	-11356
▁emphasised	-11357
▁formuliert	-11358
▁garantiert	-11359
▁previously	-11360
▁referendum	-11361
▁underlying	-11362
▁verringern	-11363
▁Vorstellung	-11364
▁functioning	-11365
▁verbundenen	-11366
▁Journalisten	-11367
▁Subventionen	-11368
▁insufficient	-11369
▁unterbreitet	-11370
▁strategischen	-11371
SA	-11372
anw	-11373
bew	-11374
urb	-11375
asts	-11376
▁Ara	-11377
▁Fus	-11378
▁Non	-11379
▁Zuf	-11380
▁saw	-11381
arten	-11382
fällt	-11383
▁2005	-11384
▁Erst	-11385
▁Scot	-11386
▁Zuge	-11387
▁früh	-11388
▁stay	-11389
▁team	-11390
lieben	-11391
wasser	-11392
▁Behin	-11393
▁Latin	-11394
▁Taten	-11395
▁Verab	-11396
▁chain	-11397
▁error	-11398
▁verhe	-11399
atorium	-11400
gerufen	-11401
isierte	-11402
▁Besitz	-11403
▁Bilanz	-11404
▁Studie	-11405
▁Wälder	-11406
▁fairly	-11407
▁nament	-11408
▁regeln	-11409
▁relate	-11410
▁zugute	-11411
probleme	-11412
▁Defence	-11413
▁clarity	-11414
▁commend	-11415
▁übersch	-11416
völkerung	-11417
▁anwenden	-11418
▁entsteht	-11419
▁speeches	-11420
▁treaties	-11421
▁Erfordern	-11422
▁Garantien	-11423
▁Verträgen	-11424
▁aktuellen	-11425
▁broadcast	-11426
▁surprised	-11427
▁vornehmen	-11428
▁Äthiopien	-11429
▁Konvention	-11430
bestimmungen	-11431
▁Verursacher	-11432
▁Verzögerung	-11433
▁Welthandels	-11434
▁beizutragen	-11435
▁vernünftige	-11436
▁Asylbewerber	-11437
▁vollständige	-11438
▁Haushaltsjahr	-11439
▁Jahresbericht	-11440
35	-11441
denk	-11442
hood	-11443
iche	-11444
orum	-11445
ower	-11446
▁Fid	-11447
▁Lob	-11448
▁Mot	-11449
▁fit	-11450
arela	-11451
▁Lank	-11452
▁Over	-11453
▁Prop	-11454
▁Rund	-11455
▁Ster	-11456
▁glob	-11457
spolit	-11458
▁Armen	-11459
▁ermut	-11460
▁estim	-11461
▁incon	-11462
▁lässt	-11463
▁sched	-11464
nehmbar	-11465
▁Varela	-11466
▁Velzen	-11467
▁mother	-11468
▁shares	-11469
▁sobald	-11470
▁stance	-11471
▁verank	-11472
▁abandon	-11473
▁besitzt	-11474
▁offered	-11475
▁warning	-11476
ausschuss	-11477
programms	-11478
schiedung	-11479
▁Betriebe	-11480
▁Pflanzen	-11481
▁believes	-11482
▁erinnere	-11483
▁gelingen	-11484
▁verboten	-11485
respective	-11486
▁Kohäsions	-11487
▁beantragt	-11488
▁Monitoring	-11489
▁anzuwenden	-11490
▁bekräftigt	-11491
▁presenting	-11492
▁staatliche	-11493
▁Äußerungen	-11494
▁Auseinander	-11495
▁Tätigkeiten	-11496
▁bedauerlich	-11497
▁efficiently	-11498
▁pornography	-11499
▁Consequently	-11500
▁Verordnungen	-11501
▁zwangsläufig	-11502
▁collaboration	-11503
▁Mittelmeerraum	-11504
▁Verabschiedung	-11505
ße	-11506
▁8,	-11507
ancy	-11508
hear	-11509
lled	-11510
pted	-11511
▁Bla	-11512
▁Sym	-11513
▁Zul	-11514
▁buy	-11515
▁dur	-11516
gleit	-11517
klärt	-11518
laden	-11519
trans	-11520
ungsk	-11521
▁1989	-11522
▁Time	-11523
▁depl	-11524
▁heik	-11525
endung	-11526
messen	-11527
▁2001.	-11528
▁Dimit	-11529
▁Gesam	-11530
▁Peijs	-11531
▁boost	-11532
▁hypoc	-11533
gelegte	-11534
zusagen	-11535
▁freuen	-11536
▁pillar	-11537
▁remove	-11538
unktions	-11539
▁bewusst	-11540
▁dispute	-11541
▁enttäus	-11542
▁erfreut	-11543
▁expense	-11544
▁höheren	-11545
▁options	-11546
▁quantit	-11547
▁shortly	-11548
▁Vielzahl	-11549
▁direkten	-11550
▁observed	-11551
▁strictly	-11552
management	-11553
▁Ausgleich	-11554
▁Fahrzeuge	-11555
▁Macedonia	-11556
▁certainty	-11557
▁undertake	-11558
▁Vertrauens	-11559
▁besonderer	-11560
▁complaints	-11561
▁observation	-11562
▁stattfindet	-11563
▁untersuchen	-11564
Mediterranean	-11565
ungsmaßnahmen	-11566
▁Konsultation	-11567
▁perspectives	-11568
▁Gerechtigkeit	-11569
▁Versicherungs	-11570
▁durchzusetzen	-11571
▁unterscheiden	-11572
▁Vorgehensweise	-11573
/4	-11574
ín	-11575
anf	-11576
aire	-11577
erer	-11578
lang	-11579
▁Dad	-11580
dring	-11581
ipfel	-11582
scale	-11583
zahlt	-11584
örung	-11585
▁Aids	-11586
▁Arme	-11587
▁Inso	-11588
▁Konk	-11589
▁mere	-11590
▁pays	-11591
achter	-11592
chmark	-11593
iderst	-11594
ährung	-11595
ürgern	-11596
▁Heads	-11597
▁aside	-11598
▁destr	-11599
▁einbe	-11600
▁liber	-11601
▁neutr	-11602
▁proud	-11603
unction	-11604
viously	-11605
▁Bureau	-11606
▁Termin	-11607
▁brings	-11608
▁chines	-11609
▁summer	-11610
▁bedroht	-11611
▁erteilt	-11612
▁proport	-11613
▁verschw	-11614
▁whereas	-11615
beihilfen	-11616
▁Betriebs	-11617
▁ambition	-11618
▁bedauern	-11619
▁beurteil	-11620
▁gewisser	-11621
▁mobility	-11622
▁openness	-11623
▁sympathy	-11624
▁verteilt	-11625
▁Absichten	-11626
▁Disziplin	-11627
▁Gesetzgeb	-11628
▁angehören	-11629
▁completed	-11630
▁employers	-11631
▁migration	-11632
▁Bestimmung	-11633
▁pensioners	-11634
▁regelmäßig	-11635
▁russischen	-11636
▁schwierige	-11637
▁sogenannte	-11638
▁vernünftig	-11639
▁Bedürfnisse	-11640
▁garantieren	-11641
▁klarstellen	-11642
▁negotiation	-11643
▁geographical	-11644
▁Vereinfachung	-11645
▁funktionieren	-11646
▁transnational	-11647
▁infrastructures	-11648
4(	-11649
Er	-11650
UE	-11651
geg	-11652
hrt	-11653
▁Oz	-11654
adox	-11655
anta	-11656
laut	-11657
meth	-11658
uung	-11659
▁Pfe	-11660
▁Ung	-11661
▁aud	-11662
spiel	-11663
while	-11664
▁Bahn	-11665
▁Bill	-11666
▁Brok	-11667
▁Miss	-11668
▁Sind	-11669
▁Stre	-11670
▁Vert	-11671
▁erad	-11672
▁leid	-11673
alling	-11674
gefühl	-11675
linary	-11676
ünften	-11677
▁Polit	-11678
▁Tisch	-11679
▁image	-11680
▁radik	-11681
▁Action	-11682
▁Kriegs	-11683
▁Mexico	-11684
▁Peking	-11685
▁breite	-11686
▁donors	-11687
▁hardly	-11688
▁nieder	-11689
▁paying	-11690
▁perpet	-11691
▁Dadurch	-11692
▁Fassung	-11693
▁Israeli	-11694
▁Prozess	-11695
▁Schicks	-11696
▁anticip	-11697
▁beeinfl	-11698
▁ideolog	-11699
▁steigen	-11700
fortunate	-11701
▁Dimitrak	-11702
▁Gesetzes	-11703
▁bewirken	-11704
▁reflects	-11705
▁sections	-11706
▁straight	-11707
▁suitable	-11708
stätigkeit	-11709
▁Austausch	-11710
▁Kompetenz	-11711
▁Offenheit	-11712
▁Questions	-11713
▁Vertrages	-11714
▁bestimmen	-11715
▁laufenden	-11716
▁penalties	-11717
▁äußerster	-11718
▁Dokumenten	-11719
▁beseitigen	-11720
▁zugestimmt	-11721
▁Verstärkung	-11722
▁aufgeworfen	-11723
▁bilateralen	-11724
▁unfortunate	-11725
verhandlungen	-11726
▁Kennzeichnung	-11727
▁Dimitrakopoulos	-11728
67	-11729
cro	-11730
esh	-11731
lam	-11732
mäh	-11733
▁Ve	-11734
baus	-11735
mord	-11736
oret	-11737
rebt	-11738
ware	-11739
▁13.	-11740
▁eye	-11741
icken	-11742
jekte	-11743
opard	-11744
redit	-11745
▁Halb	-11746
▁Kurd	-11747
▁Lond	-11748
▁Poet	-11749
▁dism	-11750
▁kümm	-11751
3/2000	-11752
ativer	-11753
ausend	-11754
derten	-11755
ierend	-11756
leitet	-11757
▁Karas	-11758
▁Süden	-11759
▁await	-11760
▁ersta	-11761
▁moved	-11762
▁Gewerk	-11763
▁Object	-11764
▁Umfeld	-11765
▁Zeiten	-11766
▁agrees	-11767
▁breach	-11768
▁doubts	-11769
▁mobile	-11770
▁notice	-11771
▁strugg	-11772
▁wenden	-11773
▁Behörde	-11774
▁Belgian	-11775
▁Korrupt	-11776
▁Verspät	-11777
▁Vertrie	-11778
▁Vorwand	-11779
▁creates	-11780
▁direkte	-11781
▁exports	-11782
▁hearing	-11783
▁ohnehin	-11784
▁resumed	-11785
▁verdeut	-11786
abgeordne	-11787
▁Wortmeld	-11788
▁beweisen	-11789
▁directed	-11790
▁entfernt	-11791
▁internen	-11792
▁interven	-11793
▁maritime	-11794
▁ratified	-11795
▁weakness	-11796
▁worrying	-11797
▁Jerusalem	-11798
▁concludes	-11799
▁Legislativ	-11800
▁Poettering	-11801
▁harmonised	-11802
▁restricted	-11803
▁Unternehmer	-11804
▁gemeinsamer	-11805
▁profitieren	-11806
▁schriftlich	-11807
▁Intervention	-11808
▁reservations	-11809
▁Inkrafttreten	-11810
▁Demokratischen	-11811
▁beglückwünsche	-11812
▁gerechtfertigt	-11813
▁representation	-11814
▁Ratspräsidenten	-11815
IM	-11816
dro	-11817
med	-11818
▁39	-11819
▁44	-11820
enne	-11821
▁Col	-11822
▁Est	-11823
▁haz	-11824
astro	-11825
ieden	-11826
mögen	-11827
reter	-11828
▁Hohe	-11829
▁Well	-11830
▁Zwar	-11831
▁ausz	-11832
▁flax	-11833
ienste	-11834
istent	-11835
▁Autos	-11836
▁David	-11837
▁Korea	-11838
▁armed	-11839
▁embry	-11840
▁forts	-11841
▁geprä	-11842
▁zweif	-11843
▁chosen	-11844
▁diesel	-11845
▁gender	-11846
▁israel	-11847
▁skills	-11848
▁Gipfels	-11849
▁depends	-11850
▁divided	-11851
▁gelangt	-11852
▁gewählt	-11853
▁infolge	-11854
▁jeopard	-11855
▁präsent	-11856
situation	-11857
▁Aufsicht	-11858
▁Entschäd	-11859
▁Insofern	-11860
▁Ansichten	-11861
▁Besonders	-11862
▁exemption	-11863
▁regulated	-11864
▁societies	-11865
▁wiederauf	-11866
▁Verteilung	-11867
▁advantages	-11868
▁derartigen	-11869
▁governance	-11870
▁inevitably	-11871
▁wenngleich	-11872
▁willkommen	-11873
▁Anmerkungen	-11874
▁Standpunkte	-11875
▁conventions	-11876
▁incorporate	-11877
▁unerläßlich	-11878
▁Hinsichtlich	-11879
▁strengthened	-11880
▁Landwirtschafts	-11881
▁Sitzungsperiode	-11882
ery	-11883
ubs	-11884
Kenn	-11885
fted	-11886
uert	-11887
uled	-11888
▁App	-11889
▁kur	-11890
▁ren	-11891
▁sav	-11892
atell	-11893
ensen	-11894
iente	-11895
ández	-11896
ätzen	-11897
▁Olym	-11898
▁Vern	-11899
▁bott	-11900
▁depr	-11901
▁hemp	-11902
▁keen	-11903
▁toys	-11904
▁Angst	-11905
▁Bösch	-11906
▁Kuhne	-11907
▁fewer	-11908
▁gewiß	-11909
▁piece	-11910
▁swift	-11911
▁undec	-11912
▁vigil	-11913
▁watch	-11914
füllung	-11915
gewogen	-11916
sektors	-11917
wieweit	-11918
▁Before	-11919
▁Bosnia	-11920
▁Ebenen	-11921
▁Geldwä	-11922
▁London	-11923
▁Mandat	-11924
▁diplom	-11925
▁dispar	-11926
▁engage	-11927
▁enorme	-11928
▁owners	-11929
▁senken	-11930
▁wahren	-11931
▁widely	-11932
▁zählen	-11933
gekommen	-11934
iscrimin	-11935
▁Bosnien	-11936
▁England	-11937
▁budgets	-11938
▁deficit	-11939
▁freight	-11940
▁interim	-11941
▁jeweils	-11942
▁removed	-11943
▁restore	-11944
▁schlage	-11945
▁species	-11946
▁whereby	-11947
▁bereitet	-11948
▁externen	-11949
▁reagiert	-11950
▁terrible	-11951
bekämpfung	-11952
kommission	-11953
spolitiken	-11954
zulänglich	-11955
▁Betroffen	-11956
▁Gewährung	-11957
▁Obviously	-11958
▁behauptet	-11959
▁unanimity	-11960
▁Protection	-11961
▁bisherigen	-11962
▁undeclared	-11963
finanzierung	-11964
▁Amsterdamer	-11965
stitutionelle	-11966
▁Flüchtlingen	-11967
▁Niederlanden	-11968
▁Rechtsrahmen	-11969
▁Zusatzstoffe	-11970
▁biotechnolog	-11971
▁economically	-11972
▁Beschränkungen	-11973
▁Kommunikations	-11974
ía	-11975
dam	-11976
vey	-11977
▁WW	-11978
Nord	-11979
ites	-11980
know	-11981
oben	-11982
▁EMU	-11983
▁Mun	-11984
anzig	-11985
▁Empf	-11986
▁Haup	-11987
▁Saal	-11988
▁Verd	-11989
▁push	-11990
▁thir	-11991
artner	-11992
struct	-11993
wahlen	-11994
wirten	-11995
▁entre	-11996
▁faith	-11997
▁junge	-11998
handeln	-11999
ifferen	-12000
verwalt	-12001
▁Follow	-12002
▁Können	-12003
▁Monten	-12004
▁Papier	-12005
▁Regime	-12006
▁Reicht	-12007
▁Rubrik	-12008
▁aktive	-12009
▁allmäh	-12010
▁fourth	-12011
bestände	-12012
ducation	-12013
schließt	-12014
▁Akteure	-12015
▁Rechtsp	-12016
▁einzube	-12017
▁gedenkt	-12018
▁komplex	-12019
▁players	-12020
itzerland	-12021
▁bewiesen	-12022
▁bezahlen	-12023
▁civilian	-12024
▁erweisen	-12025
▁gestärkt	-12026
▁modernen	-12027
▁recovery	-12028
▁stronger	-12029
▁vorgehen	-12030
rechtliche	-12031
servativen	-12032
stechnolog	-12033
▁Einkommen	-12034
▁betreiben	-12035
▁dänischen	-12036
▁erfordern	-12037
▁harmonise	-12038
▁incidents	-12039
▁interoper	-12040
▁wholehear	-12041
▁Strategien	-12042
▁apparently	-12043
▁derogation	-12044
▁equivalent	-12045
▁Ergebnissen	-12046
▁Perspektive	-12047
▁beteiligten	-12048
▁contributed	-12049
▁counterfeit	-12050
▁undertaking	-12051
▁verstärkten	-12052
▁Abhängigkeit	-12053
▁Drittstaaten	-12054
▁Einschätzung	-12055
▁Finanziellen	-12056
▁demokratisch	-12057
▁einzubeziehen	-12058
57	-12059
bu	-12060
ini	-12061
äbe	-12062
▁ED	-12063
Corm	-12064
egro	-12065
porn	-12066
▁Off	-12067
▁Tro	-12068
▁ded	-12069
▁gez	-12070
iated	-12071
igern	-12072
reibt	-12073
▁1991	-12074
▁Dort	-12075
▁Vorg	-12076
▁fire	-12077
▁puts	-12078
▁race	-12079
kehren	-12080
▁Abbau	-12081
▁Ideen	-12082
▁Kapaz	-12083
▁Rauch	-12084
▁Schwä	-12085
▁comit	-12086
▁crops	-12087
▁ideal	-12088
▁looks	-12089
Cormick	-12090
spruchs	-12091
▁Auffor	-12092
▁Ferber	-12093
▁Mexiko	-12094
▁Sicher	-12095
▁looked	-12096
▁streng	-12097
▁utmost	-12098
▁verwir	-12099
chtungen	-12100
schieben	-12101
▁Fidschi	-12102
▁Gebiets	-12103
▁Gebäude	-12104
▁Kranken	-12105
▁attacks	-12106
▁lasting	-12107
▁lokaler	-12108
▁offices	-12109
▁playing	-12110
▁refugee	-12111
▁seekers	-12112
▁beiträgt	-12113
▁launched	-12114
▁promised	-12115
verfahrens	-12116
▁Financial	-12117
bevölkerung	-12118
▁Montenegro	-12119
▁allocation	-12120
▁beobachten	-12121
▁comitology	-12122
▁suggestion	-12123
▁Bekanntlich	-12124
▁Territorium	-12125
▁angekündigt	-12126
▁constitutes	-12127
▁delegations	-12128
▁inspections	-12129
▁interessant	-12130
▁populations	-12131
▁verzeichnen	-12132
▁legislativen	-12133
▁satisfaction	-12134
▁Dienststellen	-12135
▁eingereichten	-12136
▁erforderliche	-12137
▁Parlamentarier	-12138
▁Bewirtschaftung	-12139
off	-12140
rum	-12141
usi	-12142
▁Pf	-12143
▁hy	-12144
ader	-12145
endt	-12146
onym	-12147
ährt	-12148
▁Mol	-12149
▁cow	-12150
▁pan	-12151
▁weg	-12152
known	-12153
weite	-12154
▁Like	-12155
▁ents	-12156
▁merg	-12157
▁oben	-12158
▁stam	-12159
illing	-12160
lösung	-12161
▁Thors	-12162
▁beibe	-12163
▁conce	-12164
▁firms	-12165
▁flood	-12166
▁kohär	-12167
▁müsse	-12168
▁remit	-12169
Ländern	-12170
zeichen	-12171
▁Vallel	-12172
▁geschä	-12173
▁nahezu	-12174
▁sincer	-12175
▁volume	-12176
regelmäß	-12177
ubringen	-12178
▁Plenars	-12179
▁declare	-12180
▁drafted	-12181
▁gradual	-12182
▁logical	-12183
▁picture	-12184
▁theoret	-12185
▁chemical	-12186
▁discover	-12187
▁modified	-12188
▁property	-12189
▁Education	-12190
▁Kategorie	-12191
▁Sitzungen	-12192
▁Tatsachen	-12193
▁Vallelers	-12194
▁ausgehend	-12195
▁eventuell	-12196
▁therapeut	-12197
angehörigen	-12198
▁Annäherung	-12199
▁Bangladesh	-12200
▁Geldwäsche	-12201
▁Gesamtheit	-12202
▁Grundlagen	-12203
▁MacCormick	-12204
▁Unregelmäß	-12205
▁encouraged	-12206
▁Außenhandel	-12207
▁hergestellt	-12208
▁Österreichs	-12209
▁Arbeitnehmern	-12210
▁Befürchtungen	-12211
▁Griechenlands	-12212
▁gleichermaßen	-12213
▁Haushaltslinie	-12214
▁Straßenverkehr	-12215
▁bevorstehenden	-12216
6/	-12217
acc	-12218
agn	-12219
zeg	-12220
▁Ök	-12221
bels	-12222
ooij	-12223
▁Daß	-12224
▁GUE	-12225
▁III	-12226
▁Log	-12227
▁Tai	-12228
▁mat	-12229
▁mid	-12230
▁ört	-12231
pidem	-12232
reise	-12233
▁Fiji	-12234
▁Jack	-12235
▁Mich	-12236
▁born	-12237
▁cuts	-12238
▁fand	-12239
▁paar	-12240
▁schö	-12241
▁tang	-12242
▁trad	-12243
ikaner	-12244
▁Angeb	-12245
▁Darin	-12246
▁Evans	-12247
▁Getre	-12248
▁Regul	-12249
▁glück	-12250
▁kurze	-12251
▁lehnt	-12252
▁seeks	-12253
öhnlich	-12254
▁Kindes	-12255
▁Latein	-12256
▁Linken	-12257
▁Monday	-12258
▁Plooij	-12259
▁Schott	-12260
▁covers	-12261
▁gefaßt	-12262
▁persec	-12263
▁unions	-12264
▁ökonom	-12265
▁Widerst	-12266
▁Without	-12267
▁dynamic	-12268
▁entrepr	-12269
▁reprodu	-12270
▁älteren	-12271
▁Everyone	-12272
▁apparent	-12273
▁barriers	-12274
▁disputes	-12275
▁konfront	-12276
▁promoted	-12277
▁zukommen	-12278
▁Krankheit	-12279
▁Sicherung	-12280
▁begründet	-12281
▁conducted	-12282
▁dependent	-12283
▁prevented	-12284
▁vormittag	-12285
▁zunehmend	-12286
▁überprüft	-12287
schreitende	-12288
▁Opposition	-12289
▁bedeutende	-12290
▁beunruhigt	-12291
▁compatible	-12292
▁containing	-12293
▁regardless	-12294
▁zusätzlich	-12295
▁Switzerland	-12296
▁furthermore	-12297
▁surrounding	-12298
▁Jahrhunderts	-12299
▁bureaucratic	-12300
▁gefährlichen	-12301
▁irrespective	-12302
▁persönlichen	-12303
▁transitional	-12304
▁Vallelersundi	-12305
▁possibilities	-12306
."	-12307
19	-12308
gy	-12309
Reg	-12310
ici	-12311
ido	-12312
adem	-12313
ftet	-12314
luss	-12315
olge	-12316
resh	-12317
ürzt	-12318
▁Del	-12319
▁Lam	-12320
▁Ref	-12321
▁Ser	-12322
▁WWU	-12323
▁zun	-12324
ading	-12325
ctual	-12326
rückt	-12327
stieg	-12328
uding	-12329
änzen	-12330
übung	-12331
▁Fünf	-12332
▁rede	-12333
4/2000	-12334
aganda	-12335
arding	-12336
atures	-12337
partei	-12338
▁Artik	-12339
▁Birma	-12340
▁Could	-12341
▁argue	-12342
▁fixed	-12343
▁fortz	-12344
▁fruit	-12345
▁motor	-12346
▁train	-12347
debatte	-12348
▁Gefäng	-12349
▁Gefühl	-12350
▁Sommer	-12351
▁length	-12352
ichteten	-12353
▁Erinner	-12354
▁Kapitel	-12355
▁Vorfeld	-12356
▁distort	-12357
▁driving	-12358
▁ersetzt	-12359
kriterien	-12360
wesenheit	-12361
▁Erwägung	-12362
▁Gebühren	-12363
▁Scotland	-12364
▁agencies	-12365
▁frontier	-12366
▁welcomes	-12367
▁ähnliche	-12368
pornograph	-12369
▁Beschluss	-12370
▁Framework	-12371
▁Fähigkeit	-12372
▁Pflichten	-12373
▁Studenten	-12374
▁Verfasser	-12375
▁abstained	-12376
▁existiert	-12377
▁Ausschüsse	-12378
▁corruption	-12379
▁historical	-12380
▁exclusively	-12381
▁explanatory	-12382
▁Beschäftigten	-12383
▁Verzögerungen	-12384
▁durchgeführten	-12385
▁entscheidender	-12386
80	-12387
IPC	-12388
▁Jo	-12389
abin	-12390
senz	-12391
uche	-12392
▁10,	-12393
▁10.	-12394
▁Abs	-12395
▁Bis	-12396
▁Opt	-12397
▁Vis	-12398
▁anp	-12399
▁gap	-12400
ahara	-12401
reize	-12402
▁Pirk	-12403
▁Prem	-12404
▁army	-12405
▁drop	-12406
▁scra	-12407
ahlung	-12408
rohung	-12409
steuer	-12410
▁11.30	-12411
▁2001,	-12412
▁Dover	-12413
▁Habit	-12414
▁Ihres	-12415
▁Inspe	-12416
▁hoher	-12417
▁lesen	-12418
▁newsp	-12419
▁posts	-12420
▁prere	-12421
▁tritt	-12422
▁unnöt	-12423
▁Ärzte	-12424
alition	-12425
opoulou	-12426
ungsbew	-12427
zufolge	-12428
▁Futter	-12429
▁Grenze	-12430
▁Sollte	-12431
▁became	-12432
▁helped	-12433
▁langem	-12434
▁minute	-12435
strichen	-12436
▁Ausbild	-12437
▁Drittel	-12438
▁Planung	-12439
▁Wechsel	-12440
▁begünst	-12441
▁flights	-12442
▁hierbei	-12443
▁lacking	-12444
▁privile	-12445
▁vereinf	-12446
ifizieren	-12447
▁Anhörung	-12448
▁bürokrat	-12449
▁combined	-12450
▁erörtern	-12451
▁forestry	-12452
▁freiwill	-12453
▁preserve	-12454
▁promises	-12455
▁regulate	-12456
öffentlich	-12457
▁abgesehen	-12458
▁einführen	-12459
▁eintreten	-12460
▁philosoph	-12461
▁prerequis	-12462
▁sozusagen	-12463
▁Beratungen	-12464
▁Investment	-12465
▁Straftaten	-12466
▁Vertretung	-12467
▁comparison	-12468
▁entreprene	-12469
▁exceptions	-12470
▁repeatedly	-12471
▁vorschlägt	-12472
▁wiederhole	-12473
▁Besteuerung	-12474
▁Fortsetzung	-12475
▁Verbrechens	-12476
▁Verbrennung	-12477
▁verursachen	-12478
▁declarations	-12479
▁europäisches	-12480
▁subsequently	-12481
stitutionellen	-12482
▁Schwarzarbeit	-12483
▁industriellen	-12484
▁justification	-12485
▁verschiedener	-12486
45	-12487
cks	-12488
let	-12489
rot	-12490
umn	-12491
▁7.	-12492
Cart	-12493
anas	-12494
arth	-12495
erei	-12496
ickt	-12497
igem	-12498
oman	-12499
▁TAC	-12500
Kenna	-12501
derte	-12502
ipher	-12503
rough	-12504
stock	-12505
▁Gibt	-12506
▁Oste	-12507
▁Prüf	-12508
1/1999	-12509
6/2000	-12510
region	-12511
riment	-12512
▁Relig	-12513
▁Wille	-12514
▁anzup	-12515
▁arise	-12516
▁coinc	-12517
▁pregn	-12518
▁stolz	-12519
▁topic	-12520
wärtige	-12521
▁Massen	-12522
▁McCart	-12523
▁Opfern	-12524
▁Pirker	-12525
▁Textes	-12526
▁doping	-12527
▁expand	-12528
▁prejud	-12529
▁stable	-12530
▁string	-12531
gleichen	-12532
▁Fleisch	-12533
▁McKenna	-12534
▁Verkauf	-12535
▁ausüben	-12536
▁beendet	-12537
▁feeding	-12538
▁jointly	-12539
▁leaving	-12540
▁niederl	-12541
▁periods	-12542
▁science	-12543
▁Gebrauch	-12544
▁Redebeit	-12545
▁distingu	-12546
▁pleasure	-12547
▁strength	-12548
▁Professor	-12549
▁demograph	-12550
▁detriment	-12551
▁reception	-12552
▁vorrangig	-12553
▁passengers	-12554
▁percentage	-12555
▁settlement	-12556
▁accompanied	-12557
▁amtierenden	-12558
▁automatisch	-12559
▁befürwortet	-12560
▁beibehalten	-12561
▁natürlichen	-12562
▁Steuerzahler	-12563
▁durchschnitt	-12564
▁approximately	-12565
▁interventions	-12566
zusammenführung	-12567
▁congratulating	-12568
65	-12569
DA	-12570
FL	-12571
do	-12572
ga	-12573
gut	-12574
ibr	-12575
▁ol	-12576
Alba	-12577
ames	-12578
größ	-12579
kins	-12580
zube	-12581
üste	-12582
▁Amt	-12583
▁Sör	-12584
▁Wur	-12585
▁emp	-12586
▁miß	-12587
▁yes	-12588
chnet	-12589
ering	-12590
kehrt	-12591
level	-12592
▁card	-12593
▁quar	-12594
▁zuge	-12595
gentur	-12596
recher	-12597
stände	-12598
▁läuft	-12599
▁reven	-12600
actions	-12601
ivation	-12602
oleranz	-12603
▁1998/0	-12604
▁Freund	-12605
▁Montag	-12606
▁Profit	-12607
▁disreg	-12608
▁divide	-12609
▁exempt	-12610
▁fertig	-12611
▁forese	-12612
▁raises	-12613
▁relief	-12614
▁religi	-12615
▁rhetor	-12616
▁schuld	-12617
▁zuerst	-12618
isenberg	-12619
▁Culture	-12620
▁Nachdem	-12621
▁Premier	-12622
▁aktiven	-12623
▁einseit	-12624
▁inneren	-12625
▁korrekt	-12626
▁medizin	-12627
▁mergers	-12628
▁turning	-12629
bereichen	-12630
ändischen	-12631
▁Beihilfe	-12632
▁Einwände	-12633
▁Hinweise	-12634
▁Sörensen	-12635
▁covering	-12636
▁eligible	-12637
▁northern	-12638
▁nützlich	-12639
▁stehende	-12640
freiheiten	-12641
▁campaigns	-12642
▁konkreter	-12643
▁receiving	-12644
▁Errichtung	-12645
▁Gesprächen	-12646
▁Innovation	-12647
▁Konflikten	-12648
▁Vereinigte	-12649
▁anerkennen	-12650
▁einzugehen	-12651
▁expressing	-12652
▁praktische	-12653
▁procedural	-12654
▁Abstimmungs	-12655
▁persönliche	-12656
▁praktischen	-12657
▁unabhängige	-12658
▁Conciliation	-12659
▁reunification	-12660
CR	-12661
bit	-12662
efe	-12663
gal	-12664
zep	-12665
▁%,	-12666
▁0,	-12667
▁41	-12668
▁9,	-12669
coun	-12670
isms	-12671
Über	-12672
▁11,	-12673
▁Ala	-12674
▁Exp	-12675
▁Jac	-12676
▁Pos	-12677
▁Sea	-12678
▁gas	-12679
▁rul	-12680
▁tox	-12681
▁upd	-12682
apers	-12683
asmus	-12684
ergie	-12685
igert	-12686
ulted	-12687
verbr	-12688
▁Beim	-12689
▁Conf	-12690
▁Dikt	-12691
▁Most	-12692
▁Sens	-12693
▁chap	-12694
▁diox	-12695
▁norm	-12696
▁ries	-12697
▁rück	-12698
▁sake	-12699
▁scen	-12700
fuhren	-12701
hörige	-12702
lausel	-12703
▁Embry	-12704
▁Erdöl	-12705
▁Erlaß	-12706
▁Media	-12707
▁fifth	-12708
▁mögen	-12709
▁shock	-12710
▁teilt	-12711
▁zuver	-12712
gehende	-12713
ingdorf	-12714
schäden	-12715
steuern	-12716
▁Graefe	-12717
▁Vorder	-12718
▁Werden	-12719
▁agency	-12720
▁deaths	-12721
▁klären	-12722
▁manche	-12723
▁murder	-12724
▁solved	-12725
▁weisen	-12726
betracht	-12727
gehenden	-12728
▁Derzeit	-12729
▁Fristen	-12730
▁Gremium	-12731
▁Jackson	-12732
▁bananas	-12733
▁ethical	-12734
▁herange	-12735
▁liefern	-12736
▁mangeln	-12737
▁pursued	-12738
▁Konzentr	-12739
▁Trotzdem	-12740
▁defining	-12741
▁deterior	-12742
▁ergänzen	-12743
▁erörtert	-12744
▁unabding	-12745
▁vorzusch	-12746
▁Emissions	-12747
▁Ergänzung	-12748
▁Following	-12749
▁einnehmen	-12750
▁expressly	-12751
▁genehmigt	-12752
▁gesichert	-12753
▁gestattet	-12754
▁monitored	-12755
▁prisoners	-12756
▁reinforce	-12757
▁remaining	-12758
▁südlichen	-12759
▁verändern	-12760
▁wirksamen	-12761
▁Baringdorf	-12762
▁Umstruktur	-12763
▁definitely	-12764
▁fortsetzen	-12765
▁indication	-12766
▁laundering	-12767
▁Ausschüssen	-12768
▁bekräftigen	-12769
▁Sachverständ	-12770
▁ausreichende	-12771
▁transactions	-12772
▁modernisation	-12773
HAR	-12774
öse	-12775
▁Ap	-12776
Behr	-12777
ifen	-12778
öste	-12779
▁Cze	-12780
▁ETA	-12781
atzid	-12782
quote	-12783
▁Food	-12784
▁HIPC	-12785
▁belg	-12786
▁engl	-12787
▁froh	-12788
▁hilf	-12789
rimine	-12790
werfen	-12791
▁Glück	-12792
▁Reise	-12793
▁Subst	-12794
▁Urspr	-12795
▁banks	-12796
▁compe	-12797
▁usual	-12798
sträger	-12799
▁Hatzid	-12800
▁Savary	-12801
▁Tragöd	-12802
▁festen	-12803
▁fühlen	-12804
▁mangel	-12805
▁symbol	-12806
Behrendt	-12807
anspruch	-12808
mögliche	-12809
▁Betrieb	-12810
▁Conserv	-12811
▁Haftung	-12812
▁Präsenz	-12813
▁lessons	-12814
▁missing	-12815
▁obliegt	-12816
▁ongoing	-12817
▁raising	-12818
▁silence	-12819
▁strenge	-12820
▁threats	-12821
▁trading	-12822
▁überras	-12823
▁Bürokrat	-12824
▁Soldaten	-12825
▁Tausende	-12826
▁Umstände	-12827
▁bewerten	-12828
▁enabling	-12829
▁ersetzen	-12830
▁genießen	-12831
▁illegale	-12832
▁meantime	-12833
▁organise	-12834
Mittelmeer	-12835
verordnung	-12836
▁Erfüllung	-12837
▁Schicksal	-12838
▁angesehen	-12839
▁dieselben	-12840
▁empfehlen	-12841
▁gründlich	-12842
▁ständigen	-12843
▁unanimous	-12844
▁verehrten	-12845
▁übereinst	-12846
▁Anbetracht	-12847
▁Duisenberg	-12848
▁Hatzidakis	-12849
▁Heimatland	-12850
▁addressing	-12851
▁eventually	-12852
▁extraordin	-12853
▁frequently	-12854
▁incentives	-12855
▁überwinden	-12856
▁Königreichs	-12857
▁Regulierung	-12858
▁Schwerpunkt	-12859
▁accordingly	-12860
▁outstanding	-12861
▁übermittelt	-12862
▁Erweiterungs	-12863
▁konstruktive	-12864
▁ökologischen	-12865
▁Dringlichkeits	-12866
Gr	-12867
NGL	-12868
uis	-12869
züg	-12870
▁5.	-12871
▁75	-12872
▁gl	-12873
SPAR	-12874
iese	-12875
stab	-12876
▁Mrd	-12877
▁Rec	-12878
▁fam	-12879
igned	-12880
mächt	-12881
pread	-12882
trägt	-12883
▁Blok	-12884
▁Nähe	-12885
▁Prov	-12886
▁Rest	-12887
▁dele	-12888
▁rund	-12889
atform	-12890
icated	-12891
uchner	-12892
zeiten	-12893
▁Evalu	-12894
▁Licht	-12895
▁Staes	-12896
▁borne	-12897
▁davor	-12898
▁guter	-12899
▁macro	-12900
▁score	-12901
▁wides	-12902
fähigen	-12903
ounting	-12904
▁Basken	-12905
▁Glückw	-12906
▁Reding	-12907
▁hierzu	-12908
▁nobody	-12909
▁racial	-12910
▁sagten	-12911
▁talked	-12912
▁treaty	-12913
▁turned	-12914
Vertrags	-12915
aktionen	-12916
▁Brenner	-12917
▁Florenz	-12918
▁Führung	-12919
▁Rahmens	-12920
▁arising	-12921
▁priorit	-12922
▁savings	-12923
▁scandal	-12924
▁stammen	-12925
▁Kouchner	-12926
▁Northern	-12927
▁deswegen	-12928
▁einfache	-12929
▁hundreds	-12930
▁höchsten	-12931
▁reliable	-12932
▁schweren	-12933
▁verschle	-12934
konvention	-12935
streckense	-12936
▁Beziehung	-12937
▁anspruchs	-12938
▁einfachen	-12939
▁intensive	-12940
▁marketing	-12941
mechanismen	-12942
▁ausgegeben	-12943
▁favourable	-12944
▁systematic	-12945
▁vereinbart	-12946
▁vermitteln	-12947
▁Bezeichnung	-12948
▁Dafürhalten	-12949
▁Vermittlung	-12950
▁consequence	-12951
▁programming	-12952
▁respektiert	-12953
▁uncertainty	-12954
▁Sozialschutz	-12955
▁inakzeptabel	-12956
▁konfrontiert	-12957
▁preparations	-12958
▁traceability	-12959
▁Arbeitsgruppe	-12960
▁significantly	-12961
Mitgliedstaaten	-12962
▁Kurzstreckense	-12963
▁Infrastrukturen	-12964
38	-12965
6(	-12966
IS	-12967
PÖ	-12968
ser	-12969
▁%.	-12970
▁wa	-12971
abot	-12972
otte	-12973
▁12,	-12974
▁13,	-12975
▁15.	-12976
▁50%	-12977
▁Bow	-12978
▁Pel	-12979
▁Roh	-12980
▁Sad	-12981
▁mus	-12982
▁raw	-12983
erted	-12984
fined	-12985
liste	-12986
zicht	-12987
▁Auto	-12988
▁door	-12989
▁ober	-12990
▁pain	-12991
Länder	-12992
führte	-12993
hafter	-12994
ulling	-12995
umping	-12996
▁Ernen	-12997
▁Lanka	-12998
▁Quite	-12999
▁Zusch	-13000
▁facto	-13001
▁hohem	-13002
▁ozone	-13003
▁sicht	-13004
planung	-13005
▁Colomb	-13006
▁Ermitt	-13007
▁Genfer	-13008
▁battle	-13009
▁multip	-13010
▁quorum	-13011
▁victim	-13012
▁Anreize	-13013
▁Ausland	-13014
▁Finnish	-13015
▁Zugangs	-13016
▁embargo	-13017
▁geklärt	-13018
▁inquiry	-13019
▁leistet	-13020
▁prinzip	-13021
▁stützen	-13022
▁usually	-13023
▁Übersch	-13024
abkommens	-13025
▁Articles	-13026
▁Cohesion	-13027
▁Einstimm	-13028
▁Rückkehr	-13029
▁Sportler	-13030
▁Weltbank	-13031
▁damaging	-13032
▁eingesch	-13033
▁informal	-13034
▁resource	-13035
▁Aufhebung	-13036
▁Nachfrage	-13037
▁Objective	-13038
▁negotiate	-13039
▁taxpayers	-13040
▁Augenblick	-13041
▁Organismen	-13042
▁Verfolgung	-13043
▁untersucht	-13044
▁verpflicht	-13045
▁widespread	-13046
▁Mechanismus	-13047
▁Stellenwert	-13048
▁Vordergrund	-13049
▁enforcement	-13050
▁genetically	-13051
▁umfassender	-13052
▁Übertragung	-13053
▁angemessenen	-13054
▁consequently	-13055
▁successfully	-13056
▁komplizierten	-13057
▁wünschenswert	-13058
▁Stellungnahmen	-13059
▁beeinträchtigt	-13060
62	-13061
OL	-13062
bef	-13063
how	-13064
ößt	-13065
▁Rü	-13066
HARE	-13067
ares	-13068
itze	-13069
merz	-13070
▁Ton	-13071
▁Who	-13072
▁adj	-13073
build	-13074
eding	-13075
enezu	-13076
günst	-13077
iscal	-13078
ohlen	-13079
▁Bush	-13080
▁Cuba	-13081
▁Herz	-13082
▁Werk	-13083
▁eyes	-13084
▁subs	-13085
▁unit	-13086
ennium	-13087
iction	-13088
ingung	-13089
jahres	-13090
träger	-13091
uklear	-13092
▁Kluft	-13093
▁OSPAR	-13094
▁Schne	-13095
▁Somit	-13096
▁Texte	-13097
▁begun	-13098
▁fleet	-13099
▁rufen	-13100
▁troub	-13101
▁zählt	-13102
ulating	-13103
▁Herbst	-13104
▁Langen	-13105
▁Nieder	-13106
▁abuses	-13107
▁butter	-13108
▁gather	-13109
▁gekenn	-13110
▁marked	-13111
▁recall	-13112
▁selten	-13113
▁teleph	-13114
▁tonnes	-13115
Abkommen	-13116
zeitraum	-13117
▁Diamant	-13118
▁Völkern	-13119
▁jeglich	-13120
▁sending	-13121
▁showing	-13122
zubringen	-13123
▁Aussagen	-13124
▁Großteil	-13125
▁Jahrzehn	-13126
▁division	-13127
▁einschlä	-13128
▁eröffnet	-13129
▁geringer	-13130
▁monopoly	-13131
▁offences	-13132
▁rigorous	-13133
▁thousand	-13134
reichenden	-13135
▁Flugzeuge	-13136
▁Fraktions	-13137
▁Funktions	-13138
▁anstreben	-13139
▁destroyed	-13140
▁diskrimin	-13141
▁gestaltet	-13142
▁observers	-13143
▁rechtlich	-13144
▁sexuellen	-13145
▁sincerely	-13146
▁worldwide	-13147
▁Erinnerung	-13148
▁bezeichnen	-13149
▁endgültige	-13150
▁finanziell	-13151
▁preventive	-13152
▁traditions	-13153
▁wenigstens	-13154
▁Betroffenen	-13155
▁Rückverfolg	-13156
▁durchsetzen	-13157
▁erheblichen	-13158
▁suggestions	-13159
▁willingness	-13160
▁Frauenhandel	-13161
▁intellectual	-13162
▁langfristige	-13163
▁automatically	-13164
▁konstruktiven	-13165
▁problematisch	-13166
▁unterstrichen	-13167
▁audiovisuellen	-13168
3,	-13169
/99	-13170
Fre	-13171
▁85	-13172
▁Ta	-13173
000)	-13174
aure	-13175
elde	-13176
life	-13177
▁Fon	-13178
▁esc	-13179
▁rid	-13180
house	-13181
kräft	-13182
neten	-13183
place	-13184
plans	-13185
▁Ozon	-13186
▁fats	-13187
▁sums	-13188
▁surf	-13189
▁wage	-13190
iertel	-13191
igence	-13192
ragmat	-13193
rating	-13194
▁Forst	-13195
▁Forum	-13196
▁Genau	-13197
▁blind	-13198
▁wofür	-13199
ichtete	-13200
itarian	-13201
nischen	-13202
quately	-13203
reicher	-13204
▁Anhang	-13205
▁Queced	-13206
▁Schmid	-13207
▁Sensib	-13208
▁autumn	-13209
▁fiscal	-13210
▁sauber	-13211
▁sought	-13212
▁united	-13213
▁vollem	-13214
agements	-13215
dokument	-13216
▁Fontain	-13217
▁Niemand	-13218
▁backing	-13219
▁ceiling	-13220
▁compete	-13221
▁concent	-13222
▁enormen	-13223
▁enthusi	-13224
▁globale	-13225
▁mittels	-13226
▁negativ	-13227
▁promise	-13228
▁scrutin	-13229
▁ähnlich	-13230
▁disagree	-13231
▁marginal	-13232
▁scheinen	-13233
▁sporting	-13234
▁umgehend	-13235
strukturen	-13236
▁Betreiber	-13237
▁accepting	-13238
▁aufhalten	-13239
▁deadlines	-13240
▁dictators	-13241
▁erweitern	-13242
▁expertise	-13243
▁undermine	-13244
▁vegetable	-13245
▁Bürokratie	-13246
▁Korruption	-13247
▁coordinate	-13248
▁disappoint	-13249
▁Fischereise	-13250
▁Vorsitzende	-13251
▁abgereicher	-13252
▁competences	-13253
▁debattieren	-13254
▁eigentliche	-13255
▁hinzuweisen	-13256
▁Finanzmittel	-13257
▁wissenschaft	-13258
▁controversial	-13259
▁Diamantopoulou	-13260
▁Umweltausschuß	-13261
▁diesbezügliche	-13262
▁wholeheartedly	-13263
▁Menschenrechten	-13264
Pl	-13265
▁X	-13266
mas	-13267
mil	-13268
pap	-13269
zer	-13270
zig	-13271
▁6.	-13272
ammt	-13273
rage	-13274
rust	-13275
trem	-13276
zerr	-13277
ühle	-13278
▁19.	-13279
▁CAP	-13280
▁Luc	-13281
▁blo	-13282
▁sen	-13283
aring	-13284
iring	-13285
kodex	-13286
kreis	-13287
pielt	-13288
point	-13289
rägen	-13290
▁Anti	-13291
▁Einm	-13292
▁Hoff	-13293
▁Lehr	-13294
▁Mult	-13295
▁Sehr	-13296
▁book	-13297
ardous	-13298
▁Chair	-13299
▁PHARE	-13300
▁Strom	-13301
▁Suche	-13302
▁Treib	-13303
▁Youth	-13304
▁farms	-13305
▁inher	-13306
▁route	-13307
ifiable	-13308
▁Ausbau	-13309
▁Detail	-13310
▁Inseln	-13311
▁Norden	-13312
▁Stunde	-13313
▁Taiwan	-13314
▁Zwecke	-13315
▁banned	-13316
▁excuse	-13317
▁killed	-13318
▁leader	-13319
▁lehnen	-13320
▁lenken	-13321
▁rasche	-13322
▁unreal	-13323
vorhaben	-13324
▁Certain	-13325
▁Kontext	-13326
▁Quecedo	-13327
▁Statist	-13328
▁Verlust	-13329
▁decades	-13330
▁engaged	-13331
▁erlaubt	-13332
▁gefragt	-13333
▁healthy	-13334
▁pretext	-13335
▁stellte	-13336
▁aufricht	-13337
▁eröffnen	-13338
▁gebunden	-13339
▁indicate	-13340
▁resulted	-13341
▁zustande	-13342
zuarbeiten	-13343
▁befürchte	-13344
▁beitritts	-13345
▁gefährden	-13346
▁kommerzie	-13347
▁offiziell	-13348
▁verfahren	-13349
▁wenigsten	-13350
geschrieben	-13351
▁Spannungen	-13352
▁Vorbehalte	-13353
▁ausgeführt	-13354
▁criticisms	-13355
▁effiziente	-13356
▁respecting	-13357
▁wahrnehmen	-13358
▁zugänglich	-13359
▁effizienter	-13360
▁radioactive	-13361
▁Delegationen	-13362
▁Gerichtshofs	-13363
▁gefährlicher	-13364
▁Einschränkung	-13365
▁participating	-13366
▁schwerwiegende	-13367
▁Generalsekretär	-13368
▁Wissenschaftler	-13369
big	-13370
enk	-13371
iox	-13372
utt	-13373
▁GF	-13374
fere	-13375
fähr	-13376
pped	-13377
stad	-13378
umän	-13379
▁24.	-13380
▁Air	-13381
▁GMO	-13382
▁Gas	-13383
▁Har	-13384
▁Hol	-13385
▁hol	-13386
▁win	-13387
5-010	-13388
5-020	-13389
flüss	-13390
hrter	-13391
orsel	-13392
teuer	-13393
ussen	-13394
▁Dary	-13395
▁Lamy	-13396
▁Merk	-13397
▁hous	-13398
▁möge	-13399
▁wozu	-13400
7/2000	-13401
▁Alles	-13402
▁Freis	-13403
▁Größe	-13404
▁items	-13405
achläss	-13406
vertrag	-13407
▁Bauern	-13408
▁Gorsel	-13409
▁Werten	-13410
▁Wähler	-13411
▁assets	-13412
▁cities	-13413
▁einher	-13414
▁förder	-13415
▁honest	-13416
▁reconc	-13417
▁unique	-13418
▁viable	-13419
▁wirken	-13420
gelungen	-13421
▁Monopol	-13422
▁Schiene	-13423
▁Solange	-13424
▁bedaure	-13425
▁beginnt	-13426
▁enforce	-13427
▁genauer	-13428
▁kleiner	-13429
▁paradox	-13430
▁regrett	-13431
▁schwere	-13432
▁testing	-13433
▁Kulturen	-13434
▁Trennung	-13435
▁advocate	-13436
▁attached	-13437
▁bedenken	-13438
▁begangen	-13439
▁bereiten	-13440
▁ersuchen	-13441
▁geringen	-13442
▁kritisch	-13443
▁schließt	-13444
▁Belastung	-13445
▁Spielzeug	-13446
▁delivered	-13447
▁deutliche	-13448
▁einhalten	-13449
▁stringent	-13450
▁verdienen	-13451
gewogenheit	-13452
ungsanlagen	-13453
▁Kategorien	-13454
▁ernsthafte	-13455
▁kritischen	-13456
▁kritisiert	-13457
▁nachdenken	-13458
▁scientists	-13459
▁überdenken	-13460
▁Tabakerzeug	-13461
▁distinction	-13462
▁historische	-13463
▁unannehmbar	-13464
▁vernachläss	-13465
▁Auffassungen	-13466
▁proportional	-13467
▁prostitution	-13468
▁umweltfreund	-13469
▁Verschmutzung	-13470
▁Lebensqualität	-13471
▁investigations	-13472
▁Mitentscheidung	-13473
▁congratulations	-13474
13	-13475
ams	-13476
ckx	-13477
▁TV	-13478
andt	-13479
inka	-13480
thly	-13481
▁Its	-13482
▁chr	-13483
▁Übr	-13484
plies	-13485
space	-13486
teien	-13487
using	-13488
zweif	-13489
▁Klär	-13490
▁Malm	-13491
▁Phän	-13492
▁city	-13493
▁deny	-13494
(2000)	-13495
nisses	-13496
schech	-13497
▁Again	-13498
▁Hence	-13499
▁Their	-13500
▁enshr	-13501
▁forum	-13502
▁fresh	-13503
▁könne	-13504
▁makro	-13505
▁merit	-13506
▁shape	-13507
▁solid	-13508
▁verzö	-13509
anlagen	-13510
bestand	-13511
schicht	-13512
sichtig	-13513
▁Agency	-13514
▁Hilfen	-13515
▁Kunden	-13516
▁Sofort	-13517
▁Venezu	-13518
▁assent	-13519
▁biolog	-13520
▁lokale	-13521
▁objekt	-13522
▁outset	-13523
▁plural	-13524
▁stages	-13525
astungen	-13526
ccession	-13527
▁Pelinka	-13528
▁Sterckx	-13529
▁bestand	-13530
▁erheben	-13531
▁verläng	-13532
▁Blokland	-13533
▁Gespräch	-13534
▁anhalten	-13535
▁ausdrück	-13536
▁gewonnen	-13537
▁habitats	-13538
▁lifelong	-13539
▁standing	-13540
operations	-13541
▁Abschluss	-13542
▁Americans	-13543
▁empfohlen	-13544
▁erläutert	-13545
▁erweitert	-13546
▁stärkeren	-13547
▁verbieten	-13548
▁withdrawn	-13549
▁Emissionen	-13550
▁Entsorgung	-13551
▁akzeptabel	-13552
▁berechtigt	-13553
▁cigarettes	-13554
▁deutlicher	-13555
▁nachmittag	-13556
▁seinerzeit	-13557
▁Bangladesch	-13558
▁Palästinens	-13559
▁Zielsetzung	-13560
▁bureaucracy	-13561
▁generations	-13562
▁performance	-13563
▁supervisory	-13564
▁confidential	-13565
▁organisierte	-13566
▁respektieren	-13567
▁verständlich	-13568
▁gegenseitigen	-13569
▁Kohäsionsfonds	-13570
▁hervorragenden	-13571
▁multinationals	-13572
▁Mitgliedstaates	-13573
▁Premierminister	-13574
▁schwerwiegenden	-13575
IV	-13576
Afr	-13577
olf	-13578
rea	-13579
yan	-13580
▁92	-13581
1998	-13582
gert	-13583
jido	-13584
wass	-13585
▁700	-13586
▁Eth	-13587
▁Yes	-13588
▁anx	-13589
▁erh	-13590
5-015	-13591
elung	-13592
ergeb	-13593
heber	-13594
holen	-13595
oured	-13596
räume	-13597
▁Bünd	-13598
▁Holz	-13599
▁fate	-13600
▁hart	-13601
▁horr	-13602
ancies	-13603
merken	-13604
rogram	-13605
▁Bevor	-13606
▁Czech	-13607
▁aufer	-13608
▁bedür	-13609
▁frank	-13610
▁geist	-13611
▁inhab	-13612
▁prime	-13613
▁reich	-13614
▁remed	-13615
tinuier	-13616
▁Anreiz	-13617
▁Sprach	-13618
▁Tonnen	-13619
▁explos	-13620
▁larger	-13621
▁suspic	-13622
▁warmly	-13623
▁weitem	-13624
▁wählen	-13625
republik	-13626
▁Kräften	-13627
▁Nuclear	-13628
▁benutzt	-13629
▁beweist	-13630
▁choices	-13631
▁geprägt	-13632
▁praktiz	-13633
wanderung	-13634
▁Angleich	-13635
▁Fontaine	-13636
▁Grünbuch	-13637
▁Zahlungs	-13638
▁abzielen	-13639
▁folglich	-13640
▁geforder	-13641
▁nachvoll	-13642
▁tangible	-13643
zusprechen	-13644
▁Malmström	-13645
▁angeblich	-13646
▁angestreb	-13647
▁consulted	-13648
▁delegates	-13649
▁gestrigen	-13650
▁Ausführung	-13651
▁beinhalten	-13652
▁definieren	-13653
▁mündlichen	-13654
▁reconsider	-13655
▁references	-13656
pornographie	-13657
▁ausgewogene	-13658
▁destruction	-13659
▁spezifische	-13660
▁Aufforderung	-13661
▁Grundprinzip	-13662
▁Verwaltungen	-13663
▁disciplinary	-13664
▁prerequisite	-13665
▁strategische	-13666
▁Untersuchungs	-13667
▁irregularities	-13668
▁traditionellen	-13669
AG	-13670
VC	-13671
ls	-13672
han	-13673
rem	-13674
▁55	-13675
▁Hä	-13676
aken	-13677
fügt	-13678
ibly	-13679
läuf	-13680
ühen	-13681
▁Anb	-13682
▁Bus	-13683
▁Cas	-13684
▁Fas	-13685
▁GAP	-13686
▁dez	-13687
▁sud	-13688
rufen	-13689
utage	-13690
▁Akin	-13691
▁Berg	-13692
▁Genf	-13693
▁Laan	-13694
▁emot	-13695
▁guil	-13696
▁pred	-13697
▁proc	-13698
▁sale	-13699
▁tank	-13700
▁tort	-13701
chtern	-13702
gewalt	-13703
▁Alter	-13704
▁Apart	-13705
▁Guter	-13706
▁Liebe	-13707
▁Refer	-13708
▁Schle	-13709
▁blame	-13710
▁feels	-13711
▁manip	-13712
▁recip	-13713
unately	-13714
▁Anlage	-13715
▁Parish	-13716
▁freely	-13717
▁heißen	-13718
▁ignore	-13719
▁infrin	-13720
▁resort	-13721
▁reveal	-13722
▁weaken	-13723
appropri	-13724
gebühren	-13725
lementar	-13726
utzutage	-13727
wegungen	-13728
wicklung	-13729
▁Ausfuhr	-13730
▁Behaupt	-13731
▁Schiffs	-13732
▁Technik	-13733
▁Tendenz	-13734
▁adverse	-13735
▁dürften	-13736
▁essence	-13737
▁geltend	-13738
▁refunds	-13739
▁reserve	-13740
▁verwirk	-13741
▁Differen	-13742
▁Getreide	-13743
▁Partnern	-13744
▁energies	-13745
▁physical	-13746
▁radioakt	-13747
▁replaced	-13748
▁ständige	-13749
orgniserre	-13750
▁Bedrohung	-13751
▁Regarding	-13752
▁Verhütung	-13753
▁permitted	-13754
▁president	-13755
▁wirksamer	-13756
▁Erwägungen	-13757
▁Gleichwohl	-13758
▁appelliere	-13759
▁leadership	-13760
▁Wichtigkeit	-13761
▁aufgetreten	-13762
▁eingeschrän	-13763
▁journalists	-13764
▁korrigieren	-13765
▁recommended	-13766
▁Generationen	-13767
▁Kooperations	-13768
▁systematisch	-13769
▁Entschädigung	-13770
▁beschleunigen	-13771
▁besorgniserre	-13772
▁beträchtliche	-13773
▁privatisation	-13774
▁verwirklichen	-13775
▁abgereichertem	-13776
cl	-13777
ié	-13778
ROM	-13779
lly	-13780
roc	-13781
▁Gl	-13782
▁Ol	-13783
▁na	-13784
aded	-13785
habt	-13786
heil	-13787
ract	-13788
rein	-13789
riot	-13790
sitz	-13791
ulse	-13792
▁11.	-13793
▁Bul	-13794
▁HIV	-13795
▁Pen	-13796
▁mas	-13797
arked	-13798
geste	-13799
merkt	-13800
nelle	-13801
weich	-13802
▁Good	-13803
▁Hanf	-13804
▁arch	-13805
▁argu	-13806
▁cere	-13807
▁conj	-13808
▁lift	-13809
anders	-13810
annual	-13811
keiten	-13812
oligan	-13813
öderal	-13814
▁Abend	-13815
▁Davon	-13816
▁Front	-13817
▁Lucas	-13818
▁drive	-13819
▁hohes	-13820
▁kolle	-13821
▁schön	-13822
▁socio	-13823
antrags	-13824
istical	-13825
ompeten	-13826
▁Atkins	-13827
▁Bewert	-13828
▁Fehlen	-13829
▁betone	-13830
▁erstes	-13831
▁europa	-13832
▁frustr	-13833
▁guilty	-13834
▁hinein	-13835
▁sudden	-13836
▁vollen	-13837
▁Echelon	-13838
▁Erasmus	-13839
▁Freunde	-13840
▁Legitim	-13841
▁Märkten	-13842
▁Sachver	-13843
▁coastal	-13844
▁dismant	-13845
▁enhance	-13846
▁geplant	-13847
▁konsult	-13848
regierung	-13849
▁Beratung	-13850
▁Folglich	-13851
▁Guterres	-13852
▁Kohäsion	-13853
▁Rückgang	-13854
▁getreten	-13855
▁managing	-13856
▁spectrum	-13857
arbeiteten	-13858
verwaltung	-13859
▁Andersson	-13860
▁Inflation	-13861
▁Naturally	-13862
▁Potential	-13863
▁Produkten	-13864
▁derselben	-13865
▁desirable	-13866
▁disregard	-13867
▁eliminate	-13868
▁gewünscht	-13869
▁regularly	-13870
▁vermieden	-13871
▁verstoßen	-13872
▁überflüss	-13873
ungsanträge	-13874
▁Handlungen	-13875
▁authorised	-13876
▁derartiger	-13877
▁derjenigen	-13878
▁existieren	-13879
▁kontinuier	-13880
▁reduzieren	-13881
▁westlichen	-13882
▁überwachen	-13883
gesetzgebung	-13884
▁Fähigkeiten	-13885
▁eingebunden	-13886
▁Einzelheiten	-13887
▁Erkenntnisse	-13888
▁Verletzungen	-13889
▁ausgewogenen	-13890
▁demonstrates	-13891
▁historischen	-13892
▁Vorstellungen	-13893
▁vollständigen	-13894
▁Ausgewogenheit	-13895
▁Gemeinschaftsp	-13896
▁Grundfreiheiten	-13897
ags	-13898
ede	-13899
gre	-13900
hel	-13901
ruf	-13902
▁56	-13903
▁SL	-13904
aman	-13905
atic	-13906
rüst	-13907
sset	-13908
▁ECO	-13909
▁Som	-13910
▁Zin	-13911
▁hes	-13912
▁hum	-13913
▁sah	-13914
▁unw	-13915
dauer	-13916
erium	-13917
inent	-13918
nüpft	-13919
rolle	-13920
▁Plus	-13921
▁Year	-13922
▁Zwei	-13923
▁cert	-13924
▁sacr	-13925
▁umge	-13926
▁zero	-13927
atlant	-13928
igsten	-13929
lebung	-13930
mellen	-13931
ranten	-13932
verbot	-13933
▁1997,	-13934
▁Autom	-13935
▁Brief	-13936
▁Ejido	-13937
▁assum	-13938
▁blood	-13939
▁input	-13940
▁sight	-13941
▁zielt	-13942
country	-13943
verhält	-13944
▁Listen	-13945
▁Verste	-13946
▁contem	-13947
▁kurzen	-13948
▁notion	-13949
▁offene	-13950
▁vorank	-13951
▁wished	-13952
alitäten	-13953
aßnahmen	-13954
betriebe	-13955
ferences	-13956
reaching	-13957
▁Mission	-13958
▁Rauchen	-13959
▁focused	-13960
▁founded	-13961
▁genetic	-13962
▁pragmat	-13963
▁refused	-13964
folgerung	-13965
ständigen	-13966
verbrauch	-13967
▁Schienen	-13968
▁arbeitet	-13969
▁commerce	-13970
▁dasselbe	-13971
▁emission	-13972
▁reported	-13973
▁struggle	-13974
▁targeted	-13975
▁zuweilen	-13976
▁begreifen	-13977
▁betrieben	-13978
▁displaced	-13979
▁electoral	-13980
▁expensive	-13981
▁gewaltige	-13982
▁gewählten	-13983
▁integrate	-13984
▁zentralen	-13985
▁Democratic	-13986
▁geleistete	-13987
▁generation	-13988
▁horizontal	-13989
ökonomischen	-13990
▁Disziplinar	-13991
▁Nonetheless	-13992
▁Veränderung	-13993
▁dauerhaften	-13994
▁experienced	-13995
▁gefährliche	-13996
▁verschaffen	-13997
▁ausgestattet	-13998
▁interessante	-13999
▁konzentriert	-14000
▁representing	-14001
▁ursprünglich	-14002
▁Rechnungshofs	-14003
▁contradiction	-14004
▁grundlegender	-14005
▁langfristigen	-14006
▁vorzuschlagen	-14007
▁grundsätzliche	-14008
7,	-14009
ASP	-14010
bem	-14011
oca	-14012
▁Fa	-14013
▁Ke	-14014
afen	-14015
back	-14016
ries	-14017
räum	-14018
▁600	-14019
▁Nob	-14020
▁Spr	-14021
▁cha	-14022
▁eco	-14023
altar	-14024
ayann	-14025
ipped	-14026
ommod	-14027
phase	-14028
prüch	-14029
wagen	-14030
water	-14031
werks	-14032
ämpft	-14033
▁Asia	-14034
▁GASP	-14035
▁Gibr	-14036
▁Lohn	-14037
▁Maes	-14038
▁Your	-14039
▁erho	-14040
charta	-14041
onomie	-14042
ynamik	-14043
▁Zentr	-14044
▁alter	-14045
▁betra	-14046
▁birth	-14047
▁cheap	-14048
▁fears	-14049
▁flags	-14050
▁herbe	-14051
▁minim	-14052
▁womit	-14053
▁youth	-14054
begleit	-14055
istency	-14056
ätigung	-14057
▁Lernen	-14058
▁Persön	-14059
▁Rechen	-14060
▁Schule	-14061
▁Surely	-14062
▁Themas	-14063
▁Unfall	-14064
▁arrive	-14065
▁banana	-14066
▁devast	-14067
▁overlo	-14068
▁senior	-14069
▁sensit	-14070
▁sitzen	-14071
▁tenden	-14072
regional	-14073
▁Branche	-14074
▁Erfolge	-14075
▁Gedanke	-14076
▁Jacques	-14077
▁Parität	-14078
▁Richter	-14079
▁Strafen	-14080
▁bezahlt	-14081
▁bezogen	-14082
▁broader	-14083
▁devoted	-14084
▁passing	-14085
▁revenue	-14086
▁tremend	-14087
ayannakis	-14088
▁Aussicht	-14089
▁Protocol	-14090
▁Rundfunk	-14091
▁bewahren	-14092
▁employed	-14093
▁erstellt	-14094
▁scrutiny	-14095
▁tackling	-14096
▁ungefähr	-14097
produktion	-14098
verteilung	-14099
▁Gibraltar	-14100
▁Mitbürger	-14101
▁endgültig	-14102
▁fundament	-14103
▁inwieweit	-14104
▁offenkund	-14105
▁organisms	-14106
▁schnellen	-14107
▁specified	-14108
▁Bewußtsein	-14109
▁Einleitung	-14110
▁Hoffnungen	-14111
▁acceptance	-14112
▁aufgreifen	-14113
▁auswärtige	-14114
▁beantragen	-14115
▁Freihandels	-14116
▁Grenzarbeit	-14117
▁dahingehend	-14118
▁departments	-14119
▁experiences	-14120
▁restrictive	-14121
▁schwieriger	-14122
▁Papayannakis	-14123
▁Unzulänglich	-14124
entscheidungen	-14125
▁Konservativen	-14126
▁Ratifizierung	-14127
▁Sozialpartner	-14128
▁qualifizierte	-14129
▁weiterentwick	-14130
▁democratically	-14131
▁verantwortungs	-14132
▁Europaabgeordne	-14133
▁technologischen	-14134
49	-14135
75	-14136
IK	-14137
Un	-14138
Mat	-14139
uum	-14140
ölf	-14141
ühm	-14142
▁Av	-14143
ager	-14144
höre	-14145
icts	-14146
ored	-14147
pone	-14148
▁150	-14149
▁80%	-14150
▁ehe	-14151
adays	-14152
anwal	-14153
ifies	-14154
immer	-14155
leute	-14156
orten	-14157
ourse	-14158
paket	-14159
▁Steu	-14160
▁Tank	-14161
▁bewe	-14162
▁ziel	-14163
▁ziti	-14164
attern	-14165
iaries	-14166
iertes	-14167
igende	-14168
ktoren	-14169
lagher	-14170
lechts	-14171
raucht	-14172
weiten	-14173
▁Inner	-14174
▁Iraqi	-14175
▁Titel	-14176
▁cease	-14177
▁größt	-14178
▁judge	-14179
▁kennt	-14180
▁liked	-14181
geführt	-14182
ulicher	-14183
ussions	-14184
verbind	-14185
zugehen	-14186
▁Abschn	-14187
▁Serben	-14188
▁Vision	-14189
▁albeit	-14190
▁beherr	-14191
▁dollar	-14192
▁liable	-14193
▁strike	-14194
reformen	-14195
ürzungen	-14196
▁Banotti	-14197
▁Bushill	-14198
▁Federal	-14199
▁Habitat	-14200
▁Instanz	-14201
▁Similar	-14202
▁clearer	-14203
▁constra	-14204
▁drängen	-14205
▁feature	-14206
▁krimine	-14207
▁largest	-14208
▁revised	-14209
▁tribute	-14210
▁zitiere	-14211
accession	-14212
chmarking	-14213
establish	-14214
streaming	-14215
▁Eingreif	-14216
▁Kampagne	-14217
▁accommod	-14218
▁accurate	-14219
▁größerer	-14220
▁peripher	-14221
▁postpone	-14222
▁quantity	-14223
▁schlicht	-14224
▁surprise	-14225
▁veranlaß	-14226
▁Gallagher	-14227
▁Luftraums	-14228
▁Mittelaus	-14229
▁beitreten	-14230
▁envisaged	-14231
▁generated	-14232
▁transfers	-14233
stitutionen	-14234
▁Beobachter	-14235
▁Schuldener	-14236
▁components	-14237
▁definitive	-14238
▁ihrerseits	-14239
▁legitimacy	-14240
▁neighbours	-14241
▁paragraphs	-14242
▁recognises	-14243
▁resistance	-14244
▁stipulated	-14245
▁unemployed	-14246
[...]
